{
  "version": "1.0",
  "truncation": null,
  "padding": null,
  "added_tokens": [
    {
      "id": 0,
      "content": "[PAD]",
      "single_word": false,
      "lstrip": false,
      "rstrip": false,
      "normalized": false,
      "special": true
    },
    {
      "id": 1,
      "content": "[BOS]",
      "single_word": false,
      "lstrip": false,
      "rstrip": false,
      "normalized": false,
      "special": true
    },
    {
      "id": 2,
      "content": "[EOS]",
      "single_word": false,
      "lstrip": false,
      "rstrip": false,
      "normalized": false,
      "special": true
    },
    {
      "id": 3,
      "content": "[UNK]",
      "single_word": false,
      "lstrip": false,
      "rstrip": false,
      "normalized": false,
      "special": true
    },
    {
      "id": 4,
      "content": "[ROW_00]",
      "single_word": false,
      "lstrip": false,
      "rstrip": false,
      "normalized": false,
      "special": true
    },
    {
      "id": 5,
      "content": "[ROW_01]",
      "single_word": false,
      "lstrip": false,
      "rstrip": false,
      "normalized": false,
      "special": true
    },
    {
      "id": 6,
      "content": "[ROW_02]",
      "single_word": false,
      "lstrip": false,
      "rstrip": false,
      "normalized": false,
      "special": true
    },
    {
      "id": 7,
      "content": "[ROW_03]",
      "single_word": false,
      "lstrip": false,
      "rstrip": false,
      "normalized": false,
      "special": true
    },
    {
      "id": 8,
      "content": "[ROW_04]",
      "single_word": false,
      "lstrip": false,
      "rstrip": false,
      "normalized": false,
      "special": true
    },
    {
      "id": 9,
      "content": "[ROW_05]",
      "single_word": false,
      "lstrip": false,
      "rstrip": false,
      "normalized": false,
      "special": true
    },
    {
      "id": 10,
      "content": "[ROW_06]",
      "single_word": false,
      "lstrip": false,
      "rstrip": false,
      "normalized": false,
      "special": true
    },
    {
      "id": 11,
      "content": "[ROW_07]",
      "single_word": false,
      "lstrip": false,
      "rstrip": false,
      "normalized": false,
      "special": true
    },
    {
      "id": 12,
      "content": "[ROW_08]",
      "single_word": false,
      "lstrip": false,
      "rstrip": false,
      "normalized": false,
      "special": true
    },
    {
      "id": 13,
      "content": "[ROW_09]",
      "single_word": false,
      "lstrip": false,
      "rstrip": false,
      "normalized": false,
      "special": true
    },
    {
      "id": 14,
      "content": "[ROW_10]",
      "single_word": false,
      "lstrip": false,
      "rstrip": false,
      "normalized": false,
      "special": true
    },
    {
      "id": 15,
      "content": "[ROW_11]",
      "single_word": false,
      "lstrip": false,
      "rstrip": false,
      "normalized": false,
      "special": true
    },
    {
      "id": 16,
      "content": "[ROW_12]",
      "single_word": false,
      "lstrip": false,
      "rstrip": false,
      "normalized": false,
      "special": true
    },
    {
      "id": 17,
      "content": "[ROW_13]",
      "single_word": false,
      "lstrip": false,
      "rstrip": false,
      "normalized": false,
      "special": true
    },
    {
      "id": 18,
      "content": "[ROW_14]",
      "single_word": false,
      "lstrip": false,
      "rstrip": false,
      "normalized": false,
      "special": true
    },
    {
      "id": 19,
      "content": "[ROW_15]",
      "single_word": false,
      "lstrip": false,
      "rstrip": false,
      "normalized": false,
      "special": true
    },
    {
      "id": 20,
      "content": "[ROW_16]",
      "single_word": false,
      "lstrip": false,
      "rstrip": false,
      "normalized": false,
      "special": true
    },
    {
      "id": 21,
      "content": "[ROW_17]",
      "single_word": false,
      "lstrip": false,
      "rstrip": false,
      "normalized": false,
      "special": true
    },
    {
      "id": 22,
      "content": "[ROW_18]",
      "single_word": false,
      "lstrip": false,
      "rstrip": false,
      "normalized": false,
      "special": true
    },
    {
      "id": 23,
      "content": "[ROW_19]",
      "single_word": false,
      "lstrip": false,
      "rstrip": false,
      "normalized": false,
      "special": true
    },
    {
      "id": 24,
      "content": "[ROW_20]",
      "single_word": false,
      "lstrip": false,
      "rstrip": false,
      "normalized": false,
      "special": true
    },
    {
      "id": 25,
      "content": "[ROW_21]",
      "single_word": false,
      "lstrip": false,
      "rstrip": false,
      "normalized": false,
      "special": true
    },
    {
      "id": 26,
      "content": "[ROW_22]",
      "single_word": false,
      "lstrip": false,
      "rstrip": false,
      "normalized": false,
      "special": true
    },
    {
      "id": 27,
      "content": "[ROW_23]",
      "single_word": false,
      "lstrip": false,
      "rstrip": false,
      "normalized": false,
      "special": true
    },
    {
      "id": 28,
      "content": "[ROW_24]",
      "single_word": false,
      "lstrip": false,
      "rstrip": false,
      "normalized": false,
      "special": true
    },
    {
      "id": 29,
      "content": "[ROW_25]",
      "single_word": false,
      "lstrip": false,
      "rstrip": false,
      "normalized": false,
      "special": true
    },
    {
      "id": 30,
      "content": "[ROW_26]",
      "single_word": false,
      "lstrip": false,
      "rstrip": false,
      "normalized": false,
      "special": true
    },
    {
      "id": 31,
      "content": "[ROW_27]",
      "single_word": false,
      "lstrip": false,
      "rstrip": false,
      "normalized": false,
      "special": true
    },
    {
      "id": 32,
      "content": "[ROW_28]",
      "single_word": false,
      "lstrip": false,
      "rstrip": false,
      "normalized": false,
      "special": true
    },
    {
      "id": 33,
      "content": "[ROW_29]",
      "single_word": false,
      "lstrip": false,
      "rstrip": false,
      "normalized": false,
      "special": true
    },
    {
      "id": 34,
      "content": "[ROW_30]",
      "single_word": false,
      "lstrip": false,
      "rstrip": false,
      "normalized": false,
      "special": true
    },
    {
      "id": 35,
      "content": "[ROW_31]",
      "single_word": false,
      "lstrip": false,
      "rstrip": false,
      "normalized": false,
      "special": true
    },
    {
      "id": 36,
      "content": "[ROW_32]",
      "single_word": false,
      "lstrip": false,
      "rstrip": false,
      "normalized": false,
      "special": true
    },
    {
      "id": 37,
      "content": "[ROW_33]",
      "single_word": false,
      "lstrip": false,
      "rstrip": false,
      "normalized": false,
      "special": true
    },
    {
      "id": 38,
      "content": "[ROW_34]",
      "single_word": false,
      "lstrip": false,
      "rstrip": false,
      "normalized": false,
      "special": true
    },
    {
      "id": 39,
      "content": "[ROW_35]",
      "single_word": false,
      "lstrip": false,
      "rstrip": false,
      "normalized": false,
      "special": true
    },
    {
      "id": 40,
      "content": "[ROW_36]",
      "single_word": false,
      "lstrip": false,
      "rstrip": false,
      "normalized": false,
      "special": true
    },
    {
      "id": 41,
      "content": "[ROW_37]",
      "single_word": false,
      "lstrip": false,
      "rstrip": false,
      "normalized": false,
      "special": true
    },
    {
      "id": 42,
      "content": "[ROW_38]",
      "single_word": false,
      "lstrip": false,
      "rstrip": false,
      "normalized": false,
      "special": true
    },
    {
      "id": 43,
      "content": "[ROW_39]",
      "single_word": false,
      "lstrip": false,
      "rstrip": false,
      "normalized": false,
      "special": true
    },
    {
      "id": 44,
      "content": "[ROW_40]",
      "single_word": false,
      "lstrip": false,
      "rstrip": false,
      "normalized": false,
      "special": true
    },
    {
      "id": 45,
      "content": "[ROW_41]",
      "single_word": false,
      "lstrip": false,
      "rstrip": false,
      "normalized": false,
      "special": true
    },
    {
      "id": 46,
      "content": "[ROW_42]",
      "single_word": false,
      "lstrip": false,
      "rstrip": false,
      "normalized": false,
      "special": true
    },
    {
      "id": 47,
      "content": "[ROW_43]",
      "single_word": false,
      "lstrip": false,
      "rstrip": false,
      "normalized": false,
      "special": true
    },
    {
      "id": 48,
      "content": "[ROW_44]",
      "single_word": false,
      "lstrip": false,
      "rstrip": false,
      "normalized": false,
      "special": true
    },
    {
      "id": 49,
      "content": "[ROW_45]",
      "single_word": false,
      "lstrip": false,
      "rstrip": false,
      "normalized": false,
      "special": true
    },
    {
      "id": 50,
      "content": "[ROW_46]",
      "single_word": false,
      "lstrip": false,
      "rstrip": false,
      "normalized": false,
      "special": true
    },
    {
      "id": 51,
      "content": "[ROW_47]",
      "single_word": false,
      "lstrip": false,
      "rstrip": false,
      "normalized": false,
      "special": true
    },
    {
      "id": 52,
      "content": "[ROW_48]",
      "single_word": false,
      "lstrip": false,
      "rstrip": false,
      "normalized": false,
      "special": true
    },
    {
      "id": 53,
      "content": "[ROW_49]",
      "single_word": false,
      "lstrip": false,
      "rstrip": false,
      "normalized": false,
      "special": true
    },
    {
      "id": 54,
      "content": "[ROW_50]",
      "single_word": false,
      "lstrip": false,
      "rstrip": false,
      "normalized": false,
      "special": true
    },
    {
      "id": 55,
      "content": "[ROW_51]",
      "single_word": false,
      "lstrip": false,
      "rstrip": false,
      "normalized": false,
      "special": true
    },
    {
      "id": 56,
      "content": "[ROW_52]",
      "single_word": false,
      "lstrip": false,
      "rstrip": false,
      "normalized": false,
      "special": true
    },
    {
      "id": 57,
      "content": "[ROW_53]",
      "single_word": false,
      "lstrip": false,
      "rstrip": false,
      "normalized": false,
      "special": true
    },
    {
      "id": 58,
      "content": "[ROW_54]",
      "single_word": false,
      "lstrip": false,
      "rstrip": false,
      "normalized": false,
      "special": true
    },
    {
      "id": 59,
      "content": "[ROW_55]",
      "single_word": false,
      "lstrip": false,
      "rstrip": false,
      "normalized": false,
      "special": true
    },
    {
      "id": 60,
      "content": "[ROW_56]",
      "single_word": false,
      "lstrip": false,
      "rstrip": false,
      "normalized": false,
      "special": true
    },
    {
      "id": 61,
      "content": "[ROW_57]",
      "single_word": false,
      "lstrip": false,
      "rstrip": false,
      "normalized": false,
      "special": true
    },
    {
      "id": 62,
      "content": "[ROW_58]",
      "single_word": false,
      "lstrip": false,
      "rstrip": false,
      "normalized": false,
      "special": true
    },
    {
      "id": 63,
      "content": "[ROW_59]",
      "single_word": false,
      "lstrip": false,
      "rstrip": false,
      "normalized": false,
      "special": true
    },
    {
      "id": 64,
      "content": "[ROW_60]",
      "single_word": false,
      "lstrip": false,
      "rstrip": false,
      "normalized": false,
      "special": true
    },
    {
      "id": 65,
      "content": "[ROW_61]",
      "single_word": false,
      "lstrip": false,
      "rstrip": false,
      "normalized": false,
      "special": true
    },
    {
      "id": 66,
      "content": "[ROW_62]",
      "single_word": false,
      "lstrip": false,
      "rstrip": false,
      "normalized": false,
      "special": true
    },
    {
      "id": 67,
      "content": "[ROW_63]",
      "single_word": false,
      "lstrip": false,
      "rstrip": false,
      "normalized": false,
      "special": true
    }
  ],
  "normalizer": null,
  "pre_tokenizer": {
    "type": "WhitespaceSplit"
  },
  "post_processor": {
    "type": "TemplateProcessing",
    "single": [
      {
        "Sequence": {
          "id": "A",
          "type_id": 0
        }
      }
    ],
    "pair": [
      {
        "Sequence": {
          "id": "A",
          "type_id": 0
        }
      },
      {
        "Sequence": {
          "id": "B",
          "type_id": 1
        }
      }
    ],
    "special_tokens": {}
  },
  "decoder": null,
  "model": {
    "type": "BPE",
    "dropout": null,
    "unk_token": "[UNK]",
    "continuing_subword_prefix": null,
    "end_of_word_suffix": null,
    "fuse_unk": false,
    "byte_fallback": false,
    "ignore_merges": false,
    "vocab": {
      "[PAD]": 0,
      "[BOS]": 1,
      "[EOS]": 2,
      "[UNK]": 3,
      "[ROW_00]": 4,
      "[ROW_01]": 5,
      "[ROW_02]": 6,
      "[ROW_03]": 7,
      "[ROW_04]": 8,
      "[ROW_05]": 9,
      "[ROW_06]": 10,
      "[ROW_07]": 11,
      "[ROW_08]": 12,
      "[ROW_09]": 13,
      "[ROW_10]": 14,
      "[ROW_11]": 15,
      "[ROW_12]": 16,
      "[ROW_13]": 17,
      "[ROW_14]": 18,
      "[ROW_15]": 19,
      "[ROW_16]": 20,
      "[ROW_17]": 21,
      "[ROW_18]": 22,
      "[ROW_19]": 23,
      "[ROW_20]": 24,
      "[ROW_21]": 25,
      "[ROW_22]": 26,
      "[ROW_23]": 27,
      "[ROW_24]": 28,
      "[ROW_25]": 29,
      "[ROW_26]": 30,
      "[ROW_27]": 31,
      "[ROW_28]": 32,
      "[ROW_29]": 33,
      "[ROW_30]": 34,
      "[ROW_31]": 35,
      "[ROW_32]": 36,
      "[ROW_33]": 37,
      "[ROW_34]": 38,
      "[ROW_35]": 39,
      "[ROW_36]": 40,
      "[ROW_37]": 41,
      "[ROW_38]": 42,
      "[ROW_39]": 43,
      "[ROW_40]": 44,
      "[ROW_41]": 45,
      "[ROW_42]": 46,
      "[ROW_43]": 47,
      "[ROW_44]": 48,
      "[ROW_45]": 49,
      "[ROW_46]": 50,
      "[ROW_47]": 51,
      "[ROW_48]": 52,
      "[ROW_49]": 53,
      "[ROW_50]": 54,
      "[ROW_51]": 55,
      "[ROW_52]": 56,
      "[ROW_53]": 57,
      "[ROW_54]": 58,
      "[ROW_55]": 59,
      "[ROW_56]": 60,
      "[ROW_57]": 61,
      "[ROW_58]": 62,
      "[ROW_59]": 63,
      "[ROW_60]": 64,
      "[ROW_61]": 65,
      "[ROW_62]": 66,
      "[ROW_63]": 67,
      "0": 68,
      "1": 69,
      "2": 70,
      "3": 71,
      "4": 72,
      "5": 73,
      "6": 74,
      "7": 75,
      "8": 76,
      "9": 77,
      ";": 78,
      "<": 79,
      "?": 80,
      "@": 81,
      "C": 82,
      "H": 83,
      "K": 84,
      "L": 85,
      "O": 86,
      "P": 87,
      "Q": 88,
      "R": 89,
      "S": 90,
      "T": 91,
      "U": 92,
      "W": 93,
      "X": 94,
      "Y": 95,
      "[": 96,
      "\\": 97,
      "]": 98,
      "_": 99,
      "`": 100,
      "a": 101,
      "b": 102,
      "c": 103,
      "d": 104,
      "e": 105,
      "f": 106,
      "g": 107,
      "h": 108,
      "i": 109,
      "j": 110,
      "k": 111,
      "l": 112,
      "o": 113,
      "p": 114,
      "q": 115,
      "r": 116,
      "s": 117,
      "t": 118,
      "u": 119,
      "v": 120,
      "w": 121,
      "x": 122,
      "y": 123,
      "z": 124,
      "~": 125,
      "~~": 126,
      "~~~~": 127,
      "~~~~~~~~": 128,
      "zz": 129,
      "OW": 130,
      "ROW": 131,
      "[ROW": 132,
      "[ROW_": 133,
      "PP": 134,
      "xx": 135,
      ";;": 136,
      "yy": 137,
      "~~~": 138,
      "tt": 139,
      "aa": 140,
      "__": 141,
      "dd": 142,
      "ee": 143,
      "zzzz": 144,
      "uu": 145,
      "vv": 146,
      "oo": 147,
      "~~~~~": 148,
      "OO": 149,
      "~~~~~~": 150,
      "xxxx": 151,
      "~~~~~~~": 152,
      "cc": 153,
      "PPPP": 154,
      "ss": 155,
      "yyyy": 156,
      "pp": 157,
      "ww": 158,
      "ii": 159,
      "[ROW_0": 160,
      "[ROW_1": 161,
      "[ROW_2": 162,
      "[ROW_3": 163,
      "[ROW_4": 164,
      "[ROW_5": 165,
      ";;;": 166,
      "tttt": 167,
      "aaaa": 168,
      "qq": 169,
      "PPP": 170,
      "0]": 171,
      "1]": 172,
      "2]": 173,
      "3]": 174,
      "QQ": 175,
      "``": 176,
      "4]": 177,
      "5]": 178,
      "6]": 179,
      "7]": 180,
      "8]": 181,
      "9]": 182,
      "KK": 183,
      "____": 184,
      "zzz": 185,
      ";;;;": 186,
      "UU": 187,
      "ff": 188,
      "xxx": 189,
      "[[": 190,
      "dddd": 191,
      "SS": 192,
      ";~": 193,
      "TT": 194,
      "rr": 195,
      "eeee": 196,
      "yyy": 197,
      "vvvv": 198,
      "P;": 199,
      "~;": 200,
      "[ROW_6": 201,
      "oooo": 202,
      "jj": 203,
      "bb": 204,
      "kk": 205,
      "uuuu": 206,
      "~~;": 207,
      "??": 208,
      "~~~~;": 209,
      ";~~~~": 210,
      "cccc": 211,
      "___": 212,
      "eee": 213,
      "P~": 214,
      "zzzzzzzz": 215,
      ";~~": 216,
      "ddd": 217,
      ";~~~~~~~": 218,
      "ttt": 219,
      "~~~~~~~;": 220,
      "~~~;": 221,
      "x_": 222,
      "iiii": 223,
      "~~~~~;": 224,
      "OOO": 225,
      "wwww": 226,
      "ppp": 227,
      ";~~~": 228,
      ";~~~~~": 229,
      "@@": 230,
      "gg": 231,
      "sss": 232,
      "uuu": 233,
      "~~~~~~;": 234,
      "zzzzz": 235,
      "yyyyy": 236,
      "aaa": 237,
      "~P": 238,
      "K_": 239,
      "\\\\": 240,
      "xxxxxx": 241,
      ";P": 242,
      ";~~~~~~": 243,
      "O;": 244,
      "OOOO": 245,
      "ccc": 246,
      "P~~": 247,
      "vvv": 248,
      "www": 249,
      "PP;": 250,
      "Pz": 251,
      "xxxxxxxx": 252,
      "PPPPP": 253,
      "ssss": 254,
      "qqqq": 255,
      "LL": 256,
      "xxxxx": 257,
      "_x": 258,
      "pppp": 259,
      "UUUU": 260,
      "Pe": 261,
      "_K": 262,
      ";O": 263,
      "PPPPPP": 264,
      "ooo": 265,
      "QQQ": 266,
      "K;": 267,
      "O~": 268,
      "ttttt": 269,
      "ze": 270,
      "PPP;": 271,
      "_;": 272,
      "ll": 273,
      "yyyyyy": 274,
      "yyyyyyyy": 275,
      "P~~~~~~~": 276,
      "~O": 277,
      "~~~~~~~P": 278,
      "tttttt": 279,
      "````": 280,
      "xx_": 281,
      "zzzzzz": 282,
      "zzzzzzz": 283,
      "Pzz": 284,
      "z~": 285,
      "aaaaaaaa": 286,
      "<<": 287,
      "dO": 288,
      "PPPPPPPP": 289,
      "rrrr": 290,
      "iii": 291,
      "ffff": 292,
      "SSSS": 293,
      "TTT": 294,
      ";K": 295,
      "ez": 296,
      ";_": 297,
      "~~P": 298,
      "aaaaaa": 299,
      "XX": 300,
      "xxxxxxx": 301,
      "[[[": 302,
      "K~": 303,
      "CC": 304,
      "P~~~": 305,
      ";;~~~~~~": 306,
      "~~~~~~;;": 307,
      "ddddd": 308,
      "Od": 309,
      "P;;": 310,
      "`e": 311,
      "~z": 312,
      "tttttttt": 313,
      "fff": 314,
      "bbbb": 315,
      ";PP": 316,
      ";PPPP": 317,
      "t_": 318,
      "xx;": 319,
      ";;~": 320,
      ";PPP": 321,
      "yyyyyyy": 322,
      "???": 323,
      "Ku": 324,
      "K~~": 325,
      "[;": 326,
      "dy": 327,
      "aaaaa": 328,
      "QQQQ": 329,
      "xxx_": 330,
      "jjjj": 331,
      "~;;": 332,
      "~~O": 333,
      "```": 334,
      "O~~": 335,
      "Ko": 336,
      "O~~~": 337,
      "eP": 338,
      "__;": 339,
      "SSS": 340,
      "uuuuu": 341,
      "d;": 342,
      "e`": 343,
      "x;": 344,
      "zP": 345,
      "~~~O": 346,
      "[[[[": 347,
      "qqqqq": 348,
      "cO": 349,
      "yd": 350,
      "ss;": 351,
      "P~~~~~": 352,
      "_t": 353,
      "~~;;": 354,
      "eeeeee": 355,
      "kkk": 356,
      "K~~~~~": 357,
      "s;": 358,
      "Pa": 359,
      "e~": 360,
      ";;;;;;": 361,
      "gggg": 362,
      "K~~~~": 363,
      "Oc": 364,
      "~e": 365,
      "~~~P": 366,
      "ddO": 367,
      "OOOOO": 368,
      "ppppp": 369,
      "aaaaaaa": 370,
      "eeeee": 371,
      "vvvvvv": 372,
      "K~~~~~~~": 373,
      "uK": 374,
      "~K": 375,
      "~~~~~~~K": 376,
      "O~~~~~~~": 377,
      "t;": 378,
      ";;P": 379,
      ";;~~": 380,
      "~~~~~~~O": 381,
      "_____": 382,
      "________": 383,
      "UUU": 384,
      "dddddd": 385,
      "TTTT": 386,
      "@@@@": 387,
      "\\vv": 388,
      "bQ": 389,
      "e;": 390,
      ";;;;;": 391,
      "______": 392,
      "K~~~": 393,
      "vvvvv": 394,
      "ooooo": 395,
      "S?": 396,
      "c;": 397,
      "o`e": 398,
      "y;": 399,
      "PPPPP;": 400,
      ";;;~": 401,
      "`p": 402,
      "a;": 403,
      "yO": 404,
      "yP": 405,
      "PP;;": 406,
      "ee;": 407,
      "PPPPPPP": 408,
      "qqq": 409,
      "KKKK": 410,
      "vvvvvvvv": 411,
      "oooooooo": 412,
      "_xx": 413,
      ";;PP": 414,
      ";[": 415,
      "P~~~~": 416,
      "ezz": 417,
      "~_": 418,
      "~~~z": 419,
      "sssss": 420,
      "dddddddd": 421,
      "rrr": 422,
      "K;;": 423,
      "iT": 424,
      "to": 425,
      "xy": 426,
      "~~PP": 427,
      "~~~~~;;;": 428,
      "xxxxx_": 429,
      "wws": 430,
      ";;;~~~~~": 431,
      "ccccc": 432,
      "Kk": 433,
      "La": 434,
      "Pee": 435,
      "YY": 436,
      "fQ": 437,
      ";;_": 438,
      "tt_": 439,
      "uu;": 440,
      "_______": 441,
      "kkkk": 442,
      "e`o": 443,
      "swwww": 444,
      "~a": 445,
      "~;;;": 446,
      "~~K": 447,
      "~~_": 448,
      "PP~~": 449,
      "xxx;": 450,
      ";~;": 451,
      "HH": 452,
      "`u": 453,
      "q;": 454,
      "sw": 455,
      "~~~~K": 456,
      "yyO": 457,
      "dd;": 458,
      "~~~~~K": 459,
      "xxxx_": 460,
      ";;;;;;;;": 461,
      "eeeeeee": 462,
      "P;~~~~~~": 463,
      "oooooo": 464,
      "uuuuuuuu": 465,
      "~~~~~~;P": 466,
      "llll": 467,
      "rrrrr": 468,
      ";?": 469,
      "Kt": 470,
      "Lv": 471,
      "P`": 472,
      "`P": 473,
      "e~~": 474,
      "xO": 475,
      "z;": 476,
      "~~~~;;": 477,
      "PP;~~~~~": 478,
      "~~~f": 479,
      ";;;;;;;": 480,
      "~~~~~;PP": 481,
      "\\\\\\": 482,
      ";P;": 483,
      "Oyy": 484,
      "Pzzz": 485,
      "Qf": 486,
      "a~": 487,
      "dz": 488,
      "u;": 489,
      "~~~~;;;;": 490,
      "vv\\": 491,
      "KKK": 492,
      ";;;;~~~~": 493,
      "cccccc": 494,
      "iiiiiiii": 495,
      "OOOOOO": 496,
      "pppppp": 497,
      "ppppppp": 498,
      ";__": 499,
      ";ss": 500,
      "?S": 501,
      "K~~~~~~": 502,
      "Ow": 503,
      "Odd": 504,
      "Ti": 505,
      "\\p": 506,
      "\\v": 507,
      "_~": 508,
      "_;;": 509,
      "dyy": 510,
      "z~~": 511,
      "~KK": 512,
      "~~~~_": 513,
      ";e": 514,
      "Kq": 515,
      "Oy": 516,
      "O~~~~": 517,
      "S~": 518,
      "_~~~~~~~": 519,
      "dyyy": 520,
      "p_": 521,
      "vL": 522,
      "z~~~": 523,
      "~~f": 524,
      "~~~~~~~_": 525,
      "ttttttt": 526,
      "ddddddd": 527,
      "eeeeeeee": 528,
      ";zz": 529,
      ";PP;": 530,
      "O~~~~~~": 531,
      "Peee": 532,
      "[q": 533,
      "\\a": 534,
      "p\\": 535,
      "sww": 536,
      "zee": 537,
      "~~a": 538,
      "zze": 539,
      ";;~~~~": 540,
      "yy;": 541,
      "~~~K": 542,
      "tt;": 543,
      "wwwww": 544,
      "iiiT": 545,
      ";a": 546,
      ";c": 547,
      "Ksss": 548,
      "Oi": 549,
      "Ot": 550,
      "Ox": 551,
      "T~": 552,
      "d~": 553,
      "uP": 554,
      "y_": 555,
      "~f": 556,
      "~~e": 557,
      "PP~~~": 558,
      ";;PPP": 559,
      "yyyd": 560,
      "vvvvvvv": 561,
      "jjj": 562,
      "iiiiii": 563,
      "UUUUU": 564,
      "CCC": 565,
      ";s": 566,
      ";??": 567,
      "?~": 568,
      "K;;;": 569,
      "O;;": 570,
      "PQ": 571,
      "P;;;": 572,
      "\\aa": 573,
      "\\~~~~~~~": 574,
      "\\qqqqq": 575,
      "_~~": 576,
      "`uuu": 577,
      "a~~": 578,
      "b<": 579,
      "c~": 580,
      "luK": 581,
      "x;~~~~~~": 582,
      "~~~~f": 583,
      "~~~;;;": 584,
      "~~~~~~_x": 585,
      "~~~~~~~\\": 586,
      "PPPPPPP;": 587,
      "x_~~~~~~": 588,
      "~~~~~~;x": 589,
      ";PPPPPPP": 590,
      "Kul": 591,
      "Ks": 592,
      "OPP": 593,
      "Qz": 594,
      "_;~~~~~~": 595,
      "`;": 596,
      "`~~~": 597,
      "`ee": 598,
      "aL": 599,
      "a\\": 600,
      "kq": 601,
      "sO": 602,
      "~T": 603,
      "~OO": 604,
      "~~~~O": 605,
      "~~~~K_": 606,
      ";;~~~": 607,
      "yyd": 608,
      "~~~PP": 609,
      "OO~": 610,
      "OO~~~~~~": 611,
      "~~~~~~OO": 612,
      "PPPP;~~~": 613,
      ";;;~~~": 614,
      "___;": 615,
      "~~~;PPPP": 616,
      "uuu;": 617,
      "~~~~~~;_": 618,
      "\\\\\\\\": 619,
      "ssssss": 620,
      "<<<": 621,
      "XXX": 622,
      "xx;xx": 623,
      "jjjjj": 624,
      "@@@@@": 625,
      ";y": 626,
      ";ee": 627,
      "?SSSS": 628,
      "Kc": 629,
      "Ktt": 630,
      "Koo": 631,
      "OTT": 632,
      "Pd": 633,
      "[~": 634,
      "_o": 635,
      "k;": 636,
      "xyyy": 637,
      "zd": 638,
      "z~~~~": 639,
      "PPee": 640,
      ";;O": 641,
      "~~~_": 642,
      "~~~`": 643,
      ";;;_": 644,
      "bbbQ": 645,
      "uuuuuu": 646,
      "LLL": 647,
      ";p": 648,
      "Sgg": 649,
      "\\;": 650,
      "\\q": 651,
      "\\~~": 652,
      "_K_": 653,
      "`o": 654,
      "ct": 655,
      "dOO": 656,
      "d;~~~~~~": 657,
      "eP;": 658,
      "txx": 659,
      "~zz": 660,
      "~~z": 661,
      "~~;;;;": 662,
      "~~~~zz": 663,
      "zz~~~~": 664,
      "PP~": 665,
      "PP~~~~~~": 666,
      "xxt": 667,
      "ooee": 668,
      "ooe`o": 669,
      "~~~~~~PP": 670,
      "~~~~~~KK": 671,
      "~~~~~~Pz": 672,
      "ccO": 673,
      "PPPP;": 674,
      ";;;P": 675,
      "PPP;~~~~": 676,
      "QQQQQ": 677,
      "KK~~~~~~": 678,
      "jjU": 679,
      "~~~~;PPP": 680,
      "@@@": 681,
      "~~~~~~;d": 682,
      "wwws": 683,
      "``````": 684,
      "zP~~~~~~": 685,
      "o`eoo": 686,
      ";x": 687,
      ";z": 688,
      "K`": 689,
      "OT": 690,
      "P;~": 691,
      "Pddd": 692,
      "Paaa": 693,
      "QP": 694,
      "Uj": 695,
      "\\zz": 696,
      "\\~~~": 697,
      "_tt": 698,
      "`K": 699,
      "`~~~~~": 700,
      "af": 701,
      "c_": 702,
      "cx": 703,
      "cxx": 704,
      "ty": 705,
      "too": 706,
      "xt": 707,
      "zzP~~~~~": 708,
      ";;[[": 709,
      "~~~;;": 710,
      "ddyyy": 711,
      "eez": 712,
      "~~~~~O": 713,
      "~~~~~Pzz": 714,
      "OOT": 715,
      ";;;~~": 716,
      "PPP~": 717,
      "KK~": 718,
      "xxxt": 719,
      "dddd;": 720,
      "bbb": 721,
      "uuuuuuu": 722,
      "sss;": 723,
      "PPPPP;;": 724,
      "`````": 725,
      "SSS?": 726,
      ";T": 727,
      ";v": 728,
      ";w": 729,
      ";yy": 730,
      "<QQQ": 731,
      "?;": 732,
      "?~~~~~~~": 733,
      "HC": 734,
      "Koooo": 735,
      "OP": 736,
      "Ozz": 737,
      "Paa": 738,
      "Qzzzz": 739,
      "_~~~~": 740,
      "_;;;": 741,
      "`O": 742,
      "a~~~": 743,
      "c~~~~~~~": 744,
      "dyyyyyyy": 745,
      "e~P": 746,
      "oKo": 747,
      "p;": 748,
      "pu": 749,
      "x__": 750,
      "yu": 751,
      "xx;~~~~~": 752,
      "~~~zz": 753,
      "aa\\": 754,
      "ddy": 755,
      "dd;~~~~~": 756,
      "~~~~~~~?": 757,
      "~~~~~~~c": 758,
      "PPPPPP;": 759,
      "QQ<": 760,
      "zzzP": 761,
      "P;P": 762,
      "~~~~;ddd": 763,
      "cccccccc": 764,
      "ccccccc": 765,
      "eeeP": 766,
      "P~e": 767,
      "ddd;~~~~": 768,
      "x_xxxxxx": 769,
      "iiiii": 770,
      "~~~~~;xx": 771,
      "~~~~~;dd": 772,
      "wwwwww": 773,
      "wwwwwwww": 774,
      "xxxxxx_x": 775,
      "qqqqqqqq": 776,
      "yyyyyyyd": 777,
      "xxx_xx": 778,
      "xxx_xxxx": 779,
      "PaPa": 780,
      "xxxx_xxx": 781,
      "llllll": 782,
      ";q": 783,
      ";oo": 784,
      ";ssss": 785,
      "Kp": 786,
      "Kz": 787,
      "K__": 788,
      "L~~~~~~~": 789,
      "O`": 790,
      "O~~~~~": 791,
      "Occ": 792,
      "Oddd": 793,
      "P~~~~~~": 794,
      "Q;": 795,
      "Qe": 796,
      "\\~": 797,
      "_xxxxxxx": 798,
      "`~": 799,
      "`uu": 800,
      "a~~~~": 801,
      "cd": 802,
      "oee": 803,
      "qK": 804,
      "q\\": 805,
      "swww": 806,
      "uy": 807,
      "xyyyy": 808,
      "ydd": 809,
      "yxy": 810,
      "~<": 811,
      "~S": 812,
      "~PP": 813,
      "~;~": 814,
      "~P~": 815,
      "~~zz": 816,
      "~~~~z": 817,
      "zzP": 818,
      "PP<": 819,
      "PPQQ": 820,
      ";;___": 821,
      "~~~~~PPP": 822,
      "~~~~~_xx": 823,
      "OOd": 824,
      "~~~~~~~L": 825,
      "PPP~~": 826,
      "PPP~~~": 827,
      "PPP~~~~~": 828,
      "QQPP": 829,
      "____;": 830,
      "[[;": 831,
      "SS?": 832,
      ";~z": 833,
      "P;e": 834,
      "~;PPPPPP": 835,
      "????": 836,
      "~~~~;[[[": 837,
      "x_xx": 838,
      "Pez": 839,
      "PPPPPP;~": 840,
      "xx_~~~~~": 841,
      "xx_xxxxx": 842,
      "xxxxxxx_": 843,
      "[[[;~~~~": 844,
      "xxxxx_xx": 845,
      ";xx": 846,
      ";____": 847,
      ";[[": 848,
      ";___": 849,
      ";eee": 850,
      ";SSSS": 851,
      ";xxxxxxx": 852,
      ";aaaaaaa": 853,
      "<~~~": 854,
      "?SS": 855,
      "?;?": 856,
      "Kss": 857,
      "LPP": 858,
      "Oz": 859,
      "Pu": 860,
      "Qzz": 861,
      "Qbbbb": 862,
      "Tiii": 863,
      "\\z": 864,
      "_~~~": 865,
      "_xxx": 866,
      "_x_": 867,
      "`~~": 868,
      "`~~~~~~~": 869,
      "`eee": 870,
      "`ppp": 871,
      "avvv": 872,
      "c;~~~~~~": 873,
      "dyyyy": 874,
      "duuu": 875,
      "iO~~~~~~": 876,
      "kK": 877,
      "q[": 878,
      "txxx": 879,
      "uzz": 880,
      "v\\": 881,
      "wO": 882,
      "ws": 883,
      "z~~~~~~~": 884,
      "zii": 885,
      "~c": 886,
      "~d": 887,
      "~K_": 888,
      "~~;;;": 889,
      "~~KK": 890,
      "~~zP": 891,
      "~~~~KK": 892,
      "zz;": 893,
      "zzv": 894,
      "zz;~~~~~": 895,
      "PP;;;": 896,
      ";;K": 897,
      "yyx": 898,
      "~~~e": 899,
      "__o": 900,
      "__;;": 901,
      "__;~~~~~": 902,
      "ddPP": 903,
      "eePP": 904,
      "eeoo": 905,
      "zzzzQ": 906,
      "~~~~~OOO": 907,
      "~~~~~Pz": 908,
      "~~~~~;;~": 909,
      "OO~~~": 910,
      "~~~~~~e~": 911,
      "~~~~~~a~": 912,
      "~~~~~~Oi": 913,
      "~~~~~~~`": 914,
      "~~~~~~~z": 915,
      "iiz": 916,
      "PPP;;": 917,
      "zzze": 918,
      ";;;;~~": 919,
      "[[[[[": 920,
      "TTTTT": 921,
      "yyyx": 922,
      "P;PPPPPP": 923,
      "~;~~": 924,
      "~~;PPPPP": 925,
      "~~~~;ccc": 926,
      "x_xxx": 927,
      "~~~~~;zz": 928,
      "~~~~~;__": 929,
      "OOO~~~~~": 930,
      "~~~~~~;c": 931,
      "ccc;~~~~": 932,
      "UUUUUU": 933,
      "UUUUUUUU": 934,
      "UUUUUUU": 935,
      "PPPPPP;P": 936,
      "QQQ<": 937,
      "xx_xxx": 938,
      "fffff": 939,
      "xxxxxxx;": 940,
      "~;;~~~~~": 941,
      "```P": 942,
      "[[[[[[[[": 943,
      "~e~~~~~~": 944,
      "aaaaaaa;": 945,
      "t;t;": 946,
      "PPPPP;~~": 947,
      "~a~~~~~~": 948,
      ";k": 949,
      ";uu": 950,
      ";zzz": 951,
      ";dddd": 952,
      ";sss": 953,
      ";???": 954,
      "<P": 955,
      "<b": 956,
      "?SSS": 957,
      "Kqq": 958,
      "K___": 959,
      "Kttt": 960,
      "L~~~~~~": 961,
      "Oyyyy": 962,
      "Oww": 963,
      "O;;;": 964,
      "Odddd": 965,
      "Occcc": 966,
      "PL": 967,
      "Pp": 968,
      "Peeee": 969,
      "PyP": 970,
      "T;": 971,
      "Ujj": 972,
      "_c": 973,
      "_xx_": 974,
      "_ttttttt": 975,
      "`d": 976,
      "`z": 977,
      "`~~~~": 978,
      "`~~~~~~": 979,
      "azz": 980,
      "cK": 981,
      "c~~": 982,
      "cOO": 983,
      "dc": 984,
      "e;;": 985,
      "e~~~": 986,
      "ezzzzzzz": 987,
      "f<": 988,
      "f~": 989,
      "k[": 990,
      "o_": 991,
      "po": 992,
      "p~": 993,
      "s_": 994,
      "s;;": 995,
      "tx": 996,
      "t~": 997,
      "tyyyy": 998,
      "tK~~~~~~": 999,
      "u~": 1000,
      "vzz": 1001,
      "yx": 1002,
      "ytt": 1003,
      "~[": 1004,
      "~t": 1005,
      "~PPPP": 1006,
      "~;;;;": 1007,
      "~z~": 1008,
      "~ez": 1009,
      "~~OO": 1010,
      "~~~~P": 1011,
      "~~~~OO": 1012,
      "~~~~P~": 1013,
      "~~~~;;;~": 1014,
      "zz~": 1015,
      "PPdd": 1016,
      "xx_x": 1017,
      ";;OO": 1018,
      "yy;~~~~~": 1019,
      "~~~OO": 1020,
      "~~~KK": 1021,
      "~~~;;;;": 1022,
      "~~~Qf": 1023,
      "ttOO": 1024,
      "__x": 1025,
      "eeo": 1026,
      "zzzze": 1027,
      "~~~~~P": 1028,
      "~~~~~`": 1029,
      "~~~~~;;": 1030,
      "~~~~~P~~": 1031,
      "~~~~~a~~": 1032,
      "OO~~": 1033,
      "OO~~~~": 1034,
      "~~~~~~L": 1035,
      "~~~~~~P~": 1036,
      "~~~~~~Pe": 1037,
      "~~~~~~Kt": 1038,
      "yyyy;": 1039,
      "yyyyO": 1040,
      "yyyyt": 1041,
      "yyyyx": 1042,
      "tttt;": 1043,
      "xxx__": 1044,
      "TT~": 1045,
      "yyy;": 1046,
      "P;~~": 1047,
      "~;qqqqq": 1048,
      "ooooeeoo": 1049,
      "bb<": 1050,
      "~~;PPP": 1051,
      "ccccO": 1052,
      "eee;": 1053,
      "P~P": 1054,
      "dddP": 1055,
      "ddd;O": 1056,
      "x_x": 1057,
      "~~~~~;yy": 1058,
      "wwwws": 1059,
      "ggS": 1060,
      "~Pe": 1061,
      "~P~~~~~~": 1062,
      "~Pzz~~~~": 1063,
      "K_t": 1064,
      "O;ddd": 1065,
      "wwwO": 1066,
      "Pz~~": 1067,
      "_K~~~~": 1068,
      "ze~": 1069,
      "zzzzzzze": 1070,
      "~~P~~~~~": 1071,
      "bbbbQ": 1072,
      ";PPPP;": 1073,
      "[;[": 1074,
      "jjjjjj": 1075,
      "eP~~~~~~": 1076,
      "o`eo`eoo": 1077,
      "yPyP": 1078,
      "fQ~~~": 1079,
      "~;;;~~~~": 1080,
      "ttttttt_": 1081,
      "~~a~~~~~": 1082,
      "~~~~zzP~": 1083,
      "ooeeoooo": 1084,
      "ooe`oe`o": 1085,
      ";S": 1086,
      ";f": 1087,
      ";u": 1088,
      ";SS": 1089,
      ";PPPPP;;": 1090,
      "<Q": 1091,
      "<~~~~~~~": 1092,
      "@;": 1093,
      "Kooo": 1094,
      "K_______": 1095,
      "L~~~": 1096,
      "Lvv": 1097,
      "O__": 1098,
      "Oss": 1099,
      "O____": 1100,
      "OTTT": 1101,
      "P;;;;": 1102,
      "POPP": 1103,
      "Qee": 1104,
      "QbbbQ": 1105,
      "\\uu": 1106,
      "\\pp": 1107,
      "\\rrrrr": 1108,
      "_~~~~~": 1109,
      "_xxxx": 1110,
      "_ttt": 1111,
      "_;O": 1112,
      "av": 1113,
      "a;~~~~~~": 1114,
      "aze": 1115,
      "aPa": 1116,
      "d~~~": 1117,
      "ePP": 1118,
      "eP~": 1119,
      "f_x": 1120,
      "hh": 1121,
      "jUj": 1122,
      "lq": 1123,
      "oto": 1124,
      "ql": 1125,
      "qvv": 1126,
      "s~~~~~~~": 1127,
      "tK": 1128,
      "uz": 1129,
      "uyy": 1130,
      "v;": 1131,
      "wss": 1132,
      "xyy": 1133,
      "yz": 1134,
      "y;~": 1135,
      "zK": 1136,
      "zO": 1137,
      "z`": 1138,
      "z~;": 1139,
      "zP~": 1140,
      "z;P": 1141,
      "~?": 1142,
      "~TT": 1143,
      "~zzzzzzz": 1144,
      "~~;~": 1145,
      "~~P~": 1146,
      "~~Qf": 1147,
      "zzO": 1148,
      "PPL": 1149,
      "xx;;": 1150,
      ";;PPPPPP": 1151,
      ";;PPPPP;": 1152,
      "~~~L": 1153,
      "~~~T": 1154,
      "tty": 1155,
      "aa;": 1156,
      "__O": 1157,
      "__~~~~~~": 1158,
      "__xxx": 1159,
      "__tttttt": 1160,
      "ddyy": 1161,
      "ddyyyyyy": 1162,
      "uuP": 1163,
      "~~~~~<": 1164,
      "~~~~~_": 1165,
      "OO;;": 1166,
      "OOTT": 1167,
      "~~~~~~__": 1168,
      "~~~~~~O;": 1169,
      "~~~~~~\\a": 1170,
      "xxxx;~~~": 1171,
      "~~~~~~~<": 1172,
      "~~~~~~~s": 1173,
      ";;;K": 1174,
      ";;;O": 1175,
      "PPP~~~~": 1176,
      "PPP;~~": 1177,
      "QQ;": 1178,
      "KK~~": 1179,
      "KK~~~~": 1180,
      "KKttt": 1181,
      "zzz~~": 1182,
      "xxx;~~~~": 1183,
      "xxxyyyyy": 1184,
      "TTO": 1185,
      "~;K": 1186,
      "~;aaaaaa": 1187,
      "~~;aaaaa": 1188,
      "~~~~;xxx": 1189,
      "ttt_": 1190,
      "ttt_;": 1191,
      "~~~;xxxx": 1192,
      "x_f": 1193,
      "x_xxxx": 1194,
      "ggg": 1195,
      "uuud": 1196,
      "~~~~~~;a": 1197,
      "yyyyyxxx": 1198,
      "~Pz": 1199,
      "O;_": 1200,
      "OOOOOOO": 1201,
      "OOOOOOOO": 1202,
      "vvv;": 1203,
      "vvva": 1204,
      "PP;PPPPP": 1205,
      "ssssssss": 1206,
      "qqqqqq": 1207,
      ";O~~~~~~": 1208,
      "PPPPPP;;": 1209,
      "zeP": 1210,
      "ze~P": 1211,
      "yyyyyydd": 1212,
      "tttttt__": 1213,
      "zzzzzzz~": 1214,
      "rrrrrr": 1215,
      "ffffffff": 1216,
      "SSSSS?": 1217,
      "TTTO": 1218,
      "aaaaaa;~": 1219,
      "bbbbbb": 1220,
      "K~~K": 1221,
      "aaaaa;~~": 1222,
      "KoK": 1223,
      "gggggggg": 1224,
      "TTTTTTTT": 1225,
      "PPPPP;PP": 1226,
      "LaL": 1227,
      "fQ~~": 1228,
      "_______K": 1229,
      "u;uuu": 1230,
      "luKluK": 1231,
      "KulKul": 1232,
      "a\\~~~~~~": 1233,
      "uuu;u": 1234,
      ";`": 1235,
      ";aa": 1236,
      ";aaaa": 1237,
      ";``": 1238,
      ";KK": 1239,
      ";~~;": 1240,
      ";~~~;": 1241,
      ";aaa": 1242,
      ";vvv": 1243,
      ";QQQ": 1244,
      ";d;": 1245,
      ";vvvvvv": 1246,
      ";_______": 1247,
      ";CCC": 1248,
      "<PPP": 1249,
      "?~~": 1250,
      "?~~~": 1251,
      "@U": 1252,
      "@PPPP": 1253,
      "CHC": 1254,
      "Kl": 1255,
      "K;~": 1256,
      "Kssss": 1257,
      "Kxxxxxxx": 1258,
      "L~": 1259,
      "Os": 1260,
      "O;~~~~~~": 1261,
      "Oyyyyyyy": 1262,
      "P<": 1263,
      "PLL": 1264,
      "P````": 1265,
      "P```": 1266,
      "Q;;": 1267,
      "Sg": 1268,
      "Ty": 1269,
      "T~~~": 1270,
      "T~~~~~": 1271,
      "T~~~~~~~": 1272,
      "Tii": 1273,
      "TP~": 1274,
      "Tiiii": 1275,
      "[u": 1276,
      "[kk": 1277,
      "[ppp": 1278,
      "\\u": 1279,
      "\\~~~~": 1280,
      "\\uuu": 1281,
      "\\zzzzz": 1282,
      "_xxxxx_": 1283,
      "a~~~~~": 1284,
      "a~~~~~~~": 1285,
      "a;;;": 1286,
      "a;~~": 1287,
      "cxxx": 1288,
      "dP": 1289,
      "d~~~~": 1290,
      "d~~~~~~~": 1291,
      "dOOO": 1292,
      "dyyyyy": 1293,
      "ezzzz": 1294,
      "e;;;": 1295,
      "e~;": 1296,
      "e;P": 1297,
      "ePzz": 1298,
      "f;": 1299,
      "jU": 1300,
      "kp": 1301,
      "l;": 1302,
      "ot": 1303,
      "pK": 1304,
      "pk": 1305,
      "qk": 1306,
      "qkk": 1307,
      "sK": 1308,
      "sx": 1309,
      "t;;": 1310,
      "t~~~~~~~": 1311,
      "t;~~~~~~": 1312,
      "t_K": 1313,
      "w;": 1314,
      "xc": 1315,
      "xs": 1316,
      "yt": 1317,
      "yw": 1318,
      "yxx": 1319,
      "y~~~~~": 1320,
      "ydO": 1321,
      "yOd": 1322,
      "zo": 1323,
      "zu": 1324,
      "zaa": 1325,
      "zPzz": 1326,
      "~L": 1327,
      "~~t": 1328,
      "~~aa": 1329,
      "~~ee": 1330,
      "~~PPPP": 1331,
      "~~PPP": 1332,
      "~~zzz": 1333,
      "~~Pz": 1334,
      "~~Pe": 1335,
      "~~ze": 1336,
      "~~zzzzzz": 1337,
      "~~Pzz": 1338,
      "~~~~xxxx": 1339,
      "~~~~;;;": 1340,
      "~~~~Pe": 1341,
      "~~~~;;;P": 1342,
      "~~~~a~~~": 1343,
      "zzQ": 1344,
      "zz~~~~~~": 1345,
      "PPO": 1346,
      "PPe": 1347,
      "xxc": 1348,
      ";;e": 1349,
      ";;__": 1350,
      ";;kk": 1351,
      "yyu": 1352,
      "~~~\\": 1353,
      "~~~Pzz": 1354,
      "~~~_t": 1355,
      "~~~a~~~~": 1356,
      "ttO": 1357,
      "tto": 1358,
      "__tttt": 1359,
      "__K~~~~~": 1360,
      "eeP": 1361,
      "ee`": 1362,
      "eezzzzzz": 1363,
      "eeP~~~~~": 1364,
      "zzzzP~": 1365,
      "uu`": 1366,
      "uup": 1367,
      "vvq": 1368,
      "~~~~~;;P": 1369,
      "~~~~~Pee": 1370,
      "OOzzz": 1371,
      "~~~~~~P": 1372,
      "~~~~~~zz": 1373,
      "~~~~~~K~": 1374,
      "~~~~~~Oc": 1375,
      "xxxx~~~~": 1376,
      "~~~~~~~T": 1377,
      "~~~~~~~a": 1378,
      "~~~~~~~d": 1379,
      "~~~~~~~t": 1380,
      "cc;": 1381,
      "ss;;": 1382,
      "yyyy_": 1383,
      "ppo": 1384,
      ";;;d": 1385,
      ";;;PP": 1386,
      ";;;PPP": 1387,
      "tttt__": 1388,
      "aaaa;~~~": 1389,
      "qqK": 1390,
      "PPPee": 1391,
      "PPP;;;": 1392,
      "PPP;;;;": 1393,
      "``;": 1394,
      "KK;": 1395,
      "zzz;": 1396,
      "zzz;~~~~": 1397,
      "xxxc": 1398,
      "ddddO": 1399,
      "dddddO": 1400,
      ";~e": 1401,
      ";~;P": 1402,
      "yyydd": 1403,
      "P;z": 1404,
      "P;~~~~~": 1405,
      "~;P": 1406,
      "~;P;": 1407,
      "ooooooo": 1408,
      "~~;a": 1409,
      "??S": 1410,
      "~~~~;zzz": 1411,
      "~~~~;eee": 1412,
      "~~~~;QQQ": 1413,
      "~~~~;o`e": 1414,
      "cccccO": 1415,
      "eee;~~~~": 1416,
      "dddyyyyy": 1417,
      "~~~;aaaa": 1418,
      "wwwwwwws": 1419,
      "sssK": 1420,
      "~~~~~~;O": 1421,
      "~~~~~~;t": 1422,
      "zzzzzP~~": 1423,
      "yyyyyd": 1424,
      "yyyyyddd": 1425,
      "~P~~~~": 1426,
      ";P;~": 1427,
      "ssss;": 1428,
      "_K~": 1429,
      "QQQ;": 1430,
      "QQQ;~~~~": 1431,
      "K;K": 1432,
      "zzzzzz~~": 1433,
      "zzzzzzee": 1434,
      "Pzze": 1435,
      "SSSSSS": 1436,
      "ez~~~~": 1437,
      ";_ttt": 1438,
      "~~Pzzzzz": 1439,
      "xxxxxxxK": 1440,
      "P;;~~~~~": 1441,
      ";PPPPP;": 1442,
      "t_~~~": 1443,
      "yyyyyyyO": 1444,
      "eP~~~~": 1445,
      "__;d": 1446,
      "cO~~~~~~": 1447,
      "~~~Pee": 1448,
      "ddOdd": 1449,
      "uKluKluK": 1450,
      "~K~~~~~~": 1451,
      "bQb": 1452,
      "c;cc": 1453,
      "`p`p": 1454,
      "KKKKKK": 1455,
      "_______;": 1456,
      "e`o;~~~~": 1457,
      "swwwwwww": 1458,
      "xxx;xx": 1459,
      "sws": 1460,
      "~~~~~K__": 1461,
      "rrrrr\\": 1462,
      "~~~f~~~": 1463,
      "d~d": 1464,
      "P;;;~~~~": 1465,
      "ctct": 1466,
      "ooe`oeeo": 1467,
      "oeeo`eoo": 1468,
      "KulKulKu": 1469,
      ";@": 1470,
      ";o": 1471,
      ";dd": 1472,
      ";ii": 1473,
      ";eeee": 1474,
      ";P~": 1475,
      ";OOOO": 1476,
      ";_K": 1477,
      ";rrrr": 1478,
      ";x;": 1479,
      ";sssss": 1480,
      ";uu;": 1481,
      ";kkkk": 1482,
      "<f": 1483,
      "<~": 1484,
      "<PP": 1485,
      "<QQ": 1486,
      "<QQ<": 1487,
      "?g": 1488,
      "?ccc": 1489,
      "@~": 1490,
      "Ky": 1491,
      "Kxxx": 1492,
      "Kppp": 1493,
      "Lvvv": 1494,
      "Oxx": 1495,
      "Ott": 1496,
      "Oii": 1497,
      "Oiiii": 1498,
      "O;~~~": 1499,
      "Osss": 1500,
      "Ot_": 1501,
      "Puu": 1502,
      "Paaaa": 1503,
      "Pff": 1504,
      "Pzzzzzzz": 1505,
      "Paaaaaaa": 1506,
      "Q<": 1507,
      "Q_": 1508,
      "Q~~~": 1509,
      "Q~~~~~~~": 1510,
      "Qzzzzzz": 1511,
      "Qzzzzzzz": 1512,
      "S~~": 1513,
      "Sww": 1514,
      "T~~": 1515,
      "Tzz": 1516,
      "Tyyyyy": 1517,
      "[k": 1518,
      "\\;;": 1519,
      "_yy": 1520,
      "_yyy": 1521,
      "`PP": 1522,
      "`K~~~~~~": 1523,
      "avvvvvvv": 1524,
      "cz": 1525,
      "c__": 1526,
      "cxxxx": 1527,
      "c~P": 1528,
      "cxO": 1529,
      "cKc": 1530,
      "d`": 1531,
      "d;;": 1532,
      "dO;": 1533,
      "d;O": 1534,
      "dO~": 1535,
      "e``": 1536,
      "e;~~~~~~": 1537,
      "eP;;": 1538,
      "fz": 1539,
      "f~~": 1540,
      "iz": 1541,
      "i~": 1542,
      "jQbbbQ": 1543,
      "lK": 1544,
      "oK~~~~~~": 1545,
      "p~~~~~~~": 1546,
      "p;~~~~~~": 1547,
      "q~~~~~~": 1548,
      "sP;": 1549,
      "swws": 1550,
      "tO": 1551,
      "t[": 1552,
      "tc": 1553,
      "t~~": 1554,
      "tyy": 1555,
      "tyyy": 1556,
      "t___": 1557,
      "u[": 1558,
      "ul": 1559,
      "uzzzz": 1560,
      "u;~~~~~~": 1561,
      "va": 1562,
      "x;;": 1563,
      "x~~~~~~~": 1564,
      "x;;;": 1565,
      "yzz": 1566,
      "yuuu": 1567,
      "yddddddd": 1568,
      "zf": 1569,
      "zy": 1570,
      "zPP": 1571,
      "zuu": 1572,
      "z~~~~~": 1573,
      "zeee": 1574,
      "~\\": 1575,
      "~i": 1576,
      "~p": 1577,
      "~pp": 1578,
      "~zzz": 1579,
      "~\\qqqqq": 1580,
      "~PPP~~~~": 1581,
      "~~T": 1582,
      "~~c": 1583,
      "~~P~~": 1584,
      "~~OOOOOO": 1585,
      "~~~~\\": 1586,
      "~~~~;~": 1587,
      "~~~~_x": 1588,
      "~~~~dy": 1589,
      "~~~~Peee": 1590,
      "~~~~PPP~": 1591,
      "~~~~e~~~": 1592,
      "zzu": 1593,
      "zz;;;": 1594,
      "zzPz": 1595,
      "zzTyyyyy": 1596,
      "PPz": 1597,
      "PPLL": 1598,
      "PPez": 1599,
      "PPOP": 1600,
      "xxO": 1601,
      "xxtt": 1602,
      "xxKK": 1603,
      ";;d": 1604,
      ";;zz": 1605,
      ";;xx": 1606,
      ";;oo": 1607,
      ";;xxxx": 1608,
      ";;ss": 1609,
      ";;~;": 1610,
      ";;sss": 1611,
      ";;xxxxxx": 1612,
      ";;[[[": 1613,
      "yy_": 1614,
      "yyt": 1615,
      "yydd": 1616,
      "yyxxxx": 1617,
      "yy;~~~": 1618,
      "yyxxxxxx": 1619,
      "~~~P~": 1620,
      "~~~PPPPP": 1621,
      "~~~;;PPP": 1622,
      "ttoo": 1623,
      "ttxxx": 1624,
      "aaP": 1625,
      "aazz": 1626,
      "aa;~~~~~": 1627,
      "__tt": 1628,
      "__oo": 1629,
      "__xxxx": 1630,
      "__KK": 1631,
      "dd~~": 1632,
      "ee~~": 1633,
      "ee;~~~~~": 1634,
      "zzzzeeee": 1635,
      "vvL": 1636,
      "~~~~~O;": 1637,
      "~~~~~ooo": 1638,
      "~~~~~af": 1639,
      "OOc": 1640,
      "OOtt": 1641,
      "OOii": 1642,
      "OOTTT": 1643,
      "~~~~~~q": 1644,
      "~~~~~~``": 1645,
      "~~~~~~K;": 1646,
      "~~~~~~z~": 1647,
      "~~~~~~Od": 1648,
      "~~~~~~Ko": 1649,
      "~~~~~~K`": 1650,
      "xxxx;;": 1651,
      "~~~~~~~Q": 1652,
      "~~~~~~~p": 1653,
      "~~~~~~~x": 1654,
      "ccz": 1655,
      "cc;c": 1656,
      "PPPP~": 1657,
      "PPPP;PPP": 1658,
      "ssx": 1659,
      "ss;;;": 1660,
      "ss;~~~~~": 1661,
      "yyyyd": 1662,
      "yyyydddd": 1663,
      "pp\\": 1664,
      "pp_": 1665,
      ";;;~~~~": 1666,
      ";;;zz": 1667,
      ";;;[[": 1668,
      "tttt___;": 1669,
      "aaaaK": 1670,
      "qqk;": 1671,
      "PPP;;PPP": 1672,
      "PPP;;~~~": 1673,
      "``e": 1674,
      "``~~~~~~": 1675,
      "_____;": 1676,
      "zzz~": 1677,
      "zzzOO": 1678,
      "zzzfff": 1679,
      ";;;;_": 1680,
      "UUjj": 1681,
      "xxxyyy": 1682,
      "xxx_x": 1683,
      "ddddyyyy": 1684,
      ";~;~": 1685,
      "eeee;": 1686,
      "eeeezzzz": 1687,
      "yyyO": 1688,
      "yyy_": 1689,
      "yyyt": 1690,
      "vvvv\\vv": 1691,
      "~;y": 1692,
      "jjUUU": 1693,
      "kkzz": 1694,
      "~~;qq": 1695,
      "~~;zzzzz": 1696,
      "~~;uuuuu": 1697,
      "~~;xx;xx": 1698,
      "??;": 1699,
      "~~~~;__": 1700,
      "~~~~;sss": 1701,
      "~~~~;aaa": 1702,
      "~~~~;PP;": 1703,
      "ccccc;": 1704,
      "___t": 1705,
      "___;;": 1706,
      "___;;___": 1707,
      "eee`": 1708,
      "eeeP~~~~": 1709,
      "P~z": 1710,
      "~~~;O": 1711,
      "~~~;yy": 1712,
      "x_x;": 1713,
      "x_xxxxx_": 1714,
      "iiiiiiiT": 1715,
      "~~~~~;aa": 1716,
      "~~~~~;ee": 1717,
      "~~~~~;ss": 1718,
      "OOO;": 1719,
      "OOOy": 1720,
      "ppp[[": 1721,
      ";~~~\\p": 1722,
      "sssw": 1723,
      "sss;~~~~": 1724,
      "~~~~~~;e": 1725,
      "~~~~~~;p": 1726,
      "~~~~~~;u": 1727,
      "zzzzz;~~": 1728,
      "yyyyy;": 1729,
      "yyyyyTzz": 1730,
      "aaa;~~~~": 1731,
      "~Peee": 1732,
      "xxxxxx;;": 1733,
      "xxxxxxyy": 1734,
      "xxxxxx_~": 1735,
      "OOOO;": 1736,
      "P~~P": 1737,
      "www;": 1738,
      "PzPaaa": 1739,
      "PPPPP~~~": 1740,
      "LLPP": 1741,
      "LLLL": 1742,
      "xxxxxK": 1743,
      "UUUUPPP;": 1744,
      "PePP": 1745,
      "_K~~~~K_": 1746,
      "oooK": 1747,
      "ooo_": 1748,
      "ooo~~~~~": 1749,
      "ttttt_~~": 1750,
      "ze~~": 1751,
      "zePP": 1752,
      "PPP;PPPP": 1753,
      "_;d": 1754,
      "yyyyyyO~": 1755,
      "~Od": 1756,
      "~Oyyyyyy": 1757,
      "tttttt;": 1758,
      "zzzzzzzP": 1759,
      "zzzzzzzQ": 1760,
      "dOy": 1761,
      "dO~~~": 1762,
      "dO~~~~~~": 1763,
      "fffffff": 1764,
      ";K~~~~~~": 1765,
      "eza": 1766,
      "ez~~": 1767,
      "XXXX": 1768,
      "[[[;;": 1769,
      "CCCC": 1770,
      "Ody": 1771,
      "~z~~~~~~": 1772,
      "~zP~~~~~": 1773,
      "fffzzz": 1774,
      "bbbbbbbb": 1775,
      ";PP;~~~~": 1776,
      ";PPPUUUU": 1777,
      "dyd": 1778,
      "QQQQQQQQ": 1779,
      "~;;PP": 1780,
      "SSS;": 1781,
      "uuuuu;~~": 1782,
      "~~~Oyyyd": 1783,
      "yd~~~~": 1784,
      "kkku": 1785,
      "ggggg": 1786,
      "aaaaaaaP": 1787,
      "UUUjj": 1788,
      "TTTTTT": 1789,
      "@@@@@@": 1790,
      "ezzP": 1791,
      "~_xxxxxx": 1792,
      "YYYY": 1793,
      "~a~~~~~": 1794,
      "~~_ttttt": 1795,
      "HHHH": 1796,
      "~~~f~~~~": 1797,
      "vv\\vvvv": 1798,
      "OOOOOO~~": 1799,
      "dyyydd": 1800,
      "dyyyO~~~": 1801,
      "p_~~~~": 1802,
      "dddddddy": 1803,
      "p\\~~~;": 1804,
      "vvvvvvva": 1805,
      "CCC;": 1806,
      "?~?~": 1807,
      "\\qqqqq;~": 1808,
      "\\qqqqq\\~": 1809,
      "c~P~": 1810,
      "~~~~f~~~": 1811,
      "`ee`": 1812,
      "~~~~Ozii": 1813,
      "xx;xx;~~": 1814,
      "?SSSSS": 1815,
      "xyyyx": 1816,
      "~~;;;;~~": 1817,
      "jjUjj": 1818,
      ";___tttt": 1819,
      "<~~~<": 1820,
      "~~~e~~~~": 1821,
      "~~~~~Pz~": 1822,
      "iizO~~~~": 1823,
      "~~~KK~~~": 1824,
      "~;qqqqq\\": 1825,
      ";vvvvvv;": 1826,
      "Tiiiiiii": 1827,
      "[ppp[": 1828,
      "_xxxxx_x": 1829,
      "y~~~~~y": 1830,
      "~\\qqqqq\\": 1831,
      ";\\": 1832,
      ";l": 1833,
      ";tttt": 1834,
      ";QQ": 1835,
      ";xxx": 1836,
      ";ttt": 1837,
      ";~~~~~;": 1838,
      ";yyyyy": 1839,
      ";K_": 1840,
      ";www": 1841,
      ";tttttt": 1842,
      ";xx_": 1843,
      ";_____": 1844,
      ";vvvvv": 1845,
      ";ee;": 1846,
      ";ccccc": 1847,
      ";ppppppp": 1848,
      ";vvvvvvv": 1849,
      ";ccccccc": 1850,
      "<~~": 1851,
      "<~~~~~": 1852,
      "<bb": 1853,
      "<bQ": 1854,
      "<fQ": 1855,
      "?C": 1856,
      "?O": 1857,
      "?~~~~~": 1858,
      "?;;;": 1859,
      "@PP": 1860,
      "@;~": 1861,
      "KT": 1862,
      "Kx": 1863,
      "Kww": 1864,
      "K;;;;": 1865,
      "Kyyy": 1866,
      "Kkk": 1867,
      "K;~~~~": 1868,
      "Kxxxxxx": 1869,
      "Kxxxxx": 1870,
      "K[q": 1871,
      "L~~~~": 1872,
      "LPPPP": 1873,
      "L;;;;": 1874,
      "LPPPPPPP": 1875,
      "LP`": 1876,
      "Ou": 1877,
      "Ozzzz": 1878,
      "Owwww": 1879,
      "Oyyyyy": 1880,
      "Owww": 1881,
      "Ottttt": 1882,
      "Oiii": 1883,
      "Oddddd": 1884,
      "Oddddddd": 1885,
      "PU": 1886,
      "Pc": 1887,
      "Pf": 1888,
      "PUU": 1889,
      "Pdddd": 1890,
      "Pzzzzz": 1891,
      "PQQQQ": 1892,
      "Pppppp": 1893,
      "P;;;;;;;": 1894,
      "PQQQQQ": 1895,
      "Q~": 1896,
      "QPP": 1897,
      "Qzzz": 1898,
      "Qb<": 1899,
      "QjjU": 1900,
      "Szz": 1901,
      "S;;": 1902,
      "TO": 1903,
      "Te": 1904,
      "T;~~~~~~": 1905,
      "TiT": 1906,
      "TOOT": 1907,
      "U@": 1908,
      "[o": 1909,
      "[p": 1910,
      "[t": 1911,
      "[;;": 1912,
      "[~~~~~~~": 1913,
      "[qq": 1914,
      "[;~~~~~~": 1915,
      "[;K": 1916,
      "[Ku": 1917,
      "\\zzzz": 1918,
      "\\rr": 1919,
      "\\~;": 1920,
      "\\~~;": 1921,
      "\\aaaaa": 1922,
      "_oo": 1923,
      "_~~~~~~": 1924,
      "_KK": 1925,
      "_;;;;": 1926,
      "_;~": 1927,
      "_ttttt": 1928,
      "_ooooo": 1929,
      "_ppppppp": 1930,
      "_p_": 1931,
      "`zz": 1932,
      "`zzzz": 1933,
      "`zzz": 1934,
      "`uuuu": 1935,
      "`ooo": 1936,
      "`L~~~~~~": 1937,
      "avv": 1938,
      "a;~~~": 1939,
      "bf": 1940,
      "bfQ~~~": 1941,
      "c~~~~": 1942,
      "c;;": 1943,
      "c~~~": 1944,
      "cKK": 1945,
      "cttt": 1946,
      "chh": 1947,
      "dyyyyyy": 1948,
      "d;_": 1949,
      "e<": 1950,
      "eO": 1951,
      "ezzz": 1952,
      "eK_": 1953,
      "ePP;": 1954,
      "eze": 1955,
      "ez~": 1956,
      "fa": 1957,
      "f~~~": 1958,
      "f~~~~~": 1959,
      "f~~~~f": 1960,
      "gw": 1961,
      "iO": 1962,
      "iy": 1963,
      "iTT": 1964,
      "iO~": 1965,
      "k~": 1966,
      "k;;": 1967,
      "kKq": 1968,
      "oK": 1969,
      "o[": 1970,
      "op": 1971,
      "o``": 1972,
      "ottt": 1973,
      "oppp": 1974,
      "oK~~~": 1975,
      "o`~~~~~~": 1976,
      "pS": 1977,
      "p[": 1978,
      "pq": 1979,
      "p~~~~": 1980,
      "qp": 1981,
      "qr": 1982,
      "quu": 1983,
      "qaaaa": 1984,
      "quuuu": 1985,
      "qkkk": 1986,
      "s;~~~~": 1987,
      "s;~~~~~~": 1988,
      "sKsss": 1989,
      "txxxx": 1990,
      "tx;": 1991,
      "tO~~~~~~": 1992,
      "ud": 1993,
      "uq": 1994,
      "u~~~~~~~": 1995,
      "u\\\\": 1996,
      "u`u": 1997,
      "upu": 1998,
      "vuu": 1999,
      "vzzzzzzz": 2000,
      "vq~~~~~~": 2001,
      "w_": 2002,
      "wssss": 2003,
      "xss": 2004,
      "x___": 2005,
      "xuuu": 2006,
      "xyyyyy": 2007,
      "xvvv": 2008,
      "xyyyyyyy": 2009,
      "yOO": 2010,
      "yeeee": 2011,
      "yddd": 2012,
      "y;P": 2013,
      "y;O": 2014,
      "yxxxxxxx": 2015,
      "yO~~~": 2016,
      "zQ": 2017,
      "z\\": 2018,
      "zcc": 2019,
      "z~~;": 2020,
      "z~P": 2021,
      "zP~~": 2022,
      "ziii": 2023,
      "zP;~~~~~": 2024,
      "~@": 2025,
      "~xx": 2026,
      "~``": 2027,
      "~P;": 2028,
      "~K;": 2029,
      "~K~": 2030,
      "~;;;;;;;": 2031,
      "~~`": 2032,
      "~~d": 2033,
      "~~zzzz": 2034,
      "~~``": 2035,
      "~~??": 2036,
      "~~eee": 2037,
      "~~O;": 2038,
      "~~PPPPPP": 2039,
      "~~K~~~~~": 2040,
      "~~;;;;;;": 2041,
      "~~dddddd": 2042,
      "~~\\qqqqq": 2043,
      "~~PPP~~~": 2044,
      "~~~~L": 2045,
      "~~~~a": 2046,
      "~~~~c": 2047,
      "~~~~p": 2048,
      "~~~~aa": 2049,
      "~~~~__": 2050,
      "~~~~zzzz": 2051,
      "~~~~P~~~": 2052,
      "~~~~;;~~": 2053,
      "~~~~PP~~": 2054,
      "~~~~Pzzz": 2055,
      "~~~~Pz~~": 2056,
      "~~~~d~~~": 2057,
      "~~~~ze~P": 2058,
      "~~~~K~~K": 2059,
      "zzd": 2060,
      "zzy": 2061,
      "zz~~": 2062,
      "zz;;": 2063,
      "zzaa": 2064,
      "zzP~~": 2065,
      "zzPzz": 2066,
      "zz\\vv": 2067,
      "zzdyy": 2068,
      "zz;zz": 2069,
      "zzPez": 2070,
      "zzdyyydd": 2071,
      "PPQ": 2072,
      "PP`": 2073,
      "PPa": 2074,
      "PPvv": 2075,
      "PPzzz": 2076,
      "PPeee": 2077,
      "PPaaa": 2078,
      "PP;;~": 2079,
      "xxy": 2080,
      "xx~": 2081,
      "xx;;~~~~": 2082,
      ";;[": 2083,
      ";;k": 2084,
      ";;s": 2085,
      ";;t": 2086,
      ";;z": 2087,
      ";;PPPP": 2088,
      ";;xxx": 2089,
      ";;_;": 2090,
      ";;aaaaaa": 2091,
      ";;~~;PPP": 2092,
      "~~~<": 2093,
      "~~~PPP": 2094,
      "~~~;~": 2095,
      "~~~zzzzz": 2096,
      "~~~<<": 2097,
      "~~~dy": 2098,
      "~~~Ko": 2099,
      "~~~;;P": 2100,
      "~~~;;;;;": 2101,
      "~~~PPP~~": 2102,
      "~~~d~~~~": 2103,
      "ttxx": 2104,
      "tt__": 2105,
      "ttK~~~~~": 2106,
      "ttxxt": 2107,
      "aa~~~~~~": 2108,
      "aarrrr": 2109,
      "__~~": 2110,
      "__~~~~": 2111,
      "__;;;": 2112,
      "__;~~": 2113,
      "ddOOO": 2114,
      "ddyyyd": 2115,
      "eezzzz": 2116,
      "eeuu": 2117,
      "eeP~": 2118,
      "ee;P": 2119,
      "eez~": 2120,
      "zzzzO": 2121,
      "zzzz~~~~": 2122,
      "zzzzP~~~": 2123,
      "uuO": 2124,
      "uu\\": 2125,
      "uuv": 2126,
      "uuz": 2127,
      "uu`uuu": 2128,
      "vv;~~~~~": 2129,
      "vvq;": 2130,
      "oo;": 2131,
      "oot": 2132,
      "oo~~~~~~": 2133,
      "oo`ee": 2134,
      "~~~~~OO": 2135,
      "~~~~~zzz": 2136,
      "~~~~~LL": 2137,
      "~~~~~Pe": 2138,
      "~~~~~K~~": 2139,
      "~~~~~```": 2140,
      "~~~~~Ko": 2141,
      "~~~~~e~~": 2142,
      "~~~~~KKK": 2143,
      "~~~~~\\aa": 2144,
      "~~~~~_tt": 2145,
      "~~~~~Ty": 2146,
      "OO;": 2147,
      "OO`": 2148,
      "OOPP": 2149,
      "OO~~~~~": 2150,
      "OO???": 2151,
      "~~~~~~f": 2152,
      "~~~~~~aa": 2153,
      "~~~~~~oo": 2154,
      "~~~~~~ez": 2155,
      "~~~~~~yO": 2156,
      "~~~~~~Ti": 2157,
      "~~~~~~Ot": 2158,
      "~~~~~~?~": 2159,
      "~~~~~~`o": 2160,
      "~~~~~~f~": 2161,
      "xxxxyy": 2162,
      "xxxx;_": 2163,
      "~~~~~~~[": 2164,
      "~~~~~~~u": 2165,
      "cc___": 2166,
      "cc;~~~~~": 2167,
      "PPPP<": 2168,
      "PPPP;P": 2169,
      "ssK": 2170,
      "ssO": 2171,
      "ssw": 2172,
      "sswww": 2173,
      "ssKsss": 2174,
      "yyyyO~~~": 2175,
      "pp~": 2176,
      "wwO": 2177,
      "wwyyyyyy": 2178,
      "iiT": 2179,
      "ii;~~~~~": 2180,
      "iiYY": 2181,
      ";;;?": 2182,
      ";;;~;": 2183,
      ";;;___": 2184,
      ";;;PPPPP": 2185,
      "ttttKK": 2186,
      "tttt_~~~": 2187,
      "aaaaP": 2188,
      "aaaa;aaa": 2189,
      "qq[": 2190,
      "qqp": 2191,
      "qq;~~": 2192,
      "qqllllll": 2193,
      "qq;q": 2194,
      "PPPU": 2195,
      "QQ;~~~~~": 2196,
      "QQ<<": 2197,
      "``~": 2198,
      "KK_": 2199,
      "KKc": 2200,
      "KKxx": 2201,
      "KK~~~": 2202,
      "KKK~~~~~": 2203,
      "____KK": 2204,
      "____;~~~": 2205,
      "______;": 2206,
      "zzzPP": 2207,
      "zzz~~~~~": 2208,
      "zzz;;;": 2209,
      "zzz;~~": 2210,
      "zzzP~~~~": 2211,
      ";;;;x": 2212,
      ";;;;;;;~": 2213,
      ";;;;_~": 2214,
      "xxxtt": 2215,
      "xxx_;": 2216,
      "[[;~~~~~": 2217,
      "dddd;~~": 2218,
      "SS;": 2219,
      ";~\\": 2220,
      ";~;;": 2221,
      ";~;;;": 2222,
      ";~P~": 2223,
      "TTi": 2224,
      "TTOO": 2225,
      "rr\\": 2226,
      "eeeeP": 2227,
      "eeeey": 2228,
      "eeeeP~~~": 2229,
      "yyyo": 2230,
      "yyyxxx": 2231,
      "yyy;~~~~": 2232,
      "yyyO~": 2233,
      "yyyddddd": 2234,
      "yyyO~~~~": 2235,
      "vvvvLv": 2236,
      "P;y": 2237,
      "P;~~~": 2238,
      "P;PPPP": 2239,
      "P;ss": 2240,
      "P;Pee": 2241,
      "~;O": 2242,
      "~;g": 2243,
      "~;~~~~": 2244,
      "~;xxxxxx": 2245,
      "kk;;": 2246,
      "uuuu;": 2247,
      "~~;__": 2248,
      "~~;zzz": 2249,
      "~~;dddd": 2250,
      "~~;xxxxx": 2251,
      "~~;z~": 2252,
      "~~;dO": 2253,
      "~~;vvvvv": 2254,
      "??~~": 2255,
      "~~~~;_": 2256,
      "~~~~;s": 2257,
      "~~~~;yyy": 2258,
      "~~~~;ttt": 2259,
      "~~~~;z~~": 2260,
      "___oooo": 2261,
      "___ttt": 2262,
      "eeez": 2263,
      "eee~~": 2264,
      "eeePP": 2265,
      "eeeP~": 2266,
      "P~;~": 2267,
      "P~e;": 2268,
      "P~ez~~~~": 2269,
      ";~~z": 2270,
      "dddO": 2271,
      "dddy": 2272,
      "dddOOO": 2273,
      "ttto": 2274,
      "ttt;~~~~": 2275,
      "tttxxxxx": 2276,
      "ttt_K": 2277,
      "tttK~~~~": 2278,
      "~~~;a": 2279,
      "~~~;____": 2280,
      "iiiiO": 2281,
      "iiiiTT": 2282,
      "iiiie~": 2283,
      "~~~~~;vv": 2284,
      "~~~~~;cc": 2285,
      "~~~~~;ii": 2286,
      "~~~~~;QQ": 2287,
      "~~~~~;[[": 2288,
      "~~~~~;Pz": 2289,
      "~~~~~;Pe": 2290,
      "~~~~~;Od": 2291,
      "OOOd": 2292,
      "OOO;;": 2293,
      "wwwws;": 2294,
      "wwwwwws": 2295,
      "ggSS": 2296,
      "uuuy": 2297,
      "uuu`uu": 2298,
      "~~~~~~;T": 2299,
      "~~~~~~;[": 2300,
      "~~~~~~;s": 2301,
      "zzzzzP": 2302,
      "zzzzz~~~": 2303,
      "zzzzz;;P": 2304,
      "zzzzz;ee": 2305,
      "zzzzzQzz": 2306,
      "yyyyyO": 2307,
      "yyyyyx": 2308,
      "yyyyyO~~": 2309,
      "yyyyyddO": 2310,
      "aaaPz": 2311,
      "aaa\\aa": 2312,
      "aaa;aaaa": 2313,
      "~PT": 2314,
      "~Pzzzz": 2315,
      "K_tttttt": 2316,
      "K_K__": 2317,
      "xxxxxxK": 2318,
      "xxxxxx;~": 2319,
      "xxxxxxK_": 2320,
      "xxxxxx;x": 2321,
      ";Ps": 2322,
      ";P;;": 2323,
      "cccOcc": 2324,
      "Pz~~~": 2325,
      "PzP~~~~~": 2326,
      "PPPPP;;;": 2327,
      "LL~~~~~": 2328,
      "xxxxxy": 2329,
      "xxxxx;~~": 2330,
      "xxxxxttt": 2331,
      "xxxxx;xx": 2332,
      "_K;": 2333,
      "_Ke": 2334,
      "_Kxxxxxx": 2335,
      "_K______": 2336,
      ";O~~": 2337,
      "PPPPPP~~": 2338,
      "ooo`": 2339,
      "K;[": 2340,
      "ttttt_": 2341,
      "tttttO~~": 2342,
      "ttttt__;": 2343,
      "ze~~~~~~": 2344,
      "PPP;z~": 2345,
      "_;xxxx": 2346,
      "yyyyyyww": 2347,
      "~Oz": 2348,
      "~Oyyy": 2349,
      "~Otttttt": 2350,
      "tttttt_K": 2351,
      "ttttttO~": 2352,
      "tttttt_~": 2353,
      "```````P": 2354,
      "xx_xx": 2355,
      "zzzzzzzv": 2356,
      "<<~~~": 2357,
      "dO~~": 2358,
      "dO;~~~~~": 2359,
      "rrrr;": 2360,
      "rrrraa": 2361,
      "iiiz": 2362,
      "SSSS?": 2363,
      ";_xxx": 2364,
      "aaaaaa;;": 2365,
      "aaaaaa;a": 2366,
      "xxxxxxxy": 2367,
      "P~~~Pe": 2368,
      "dddddyyy": 2369,
      "Od;~~": 2370,
      "OdyyO": 2371,
      "P;;P": 2372,
      "P;;~~~": 2373,
      "P;;zzzzz": 2374,
      "`eP": 2375,
      "~z;PPP": 2376,
      "xx;x": 2377,
      "xx;xxxxx": 2378,
      "yyyyyyyx": 2379,
      "???OO": 2380,
      "KuK": 2381,
      "K~~K~~~~": 2382,
      "QQQQQQ": 2383,
      "xxx_~": 2384,
      "~;;;;;~~": 2385,
      "~~Oyyyyy": 2386,
      "~~Ottttt": 2387,
      "```L": 2388,
      "```~~~~~": 2389,
      "d;d": 2390,
      "d;__": 2391,
      "d;PPPPPP": 2392,
      "x;xxxxxx": 2393,
      "~~~Oy": 2394,
      "~~~Oyyyy": 2395,
      "qqqqq;~": 2396,
      "qqqqq\\~~": 2397,
      "cOcccccc": 2398,
      "yd~~~": 2399,
      "~~;;~~~~": 2400,
      "~~;;;;;~": 2401,
      "eeeeeeuy": 2402,
      "kkkq": 2403,
      "s;s": 2404,
      ";;;;;;~~": 2405,
      "~~~P~~~~": 2406,
      "~~~Pzzzz": 2407,
      "~~~Peeee": 2408,
      "dddddd~~": 2409,
      ";;;;;~~~": 2410,
      "______K_": 2411,
      "vvvvv;~~": 2412,
      "vvvvvOx": 2413,
      "o`e`o": 2414,
      "`pK": 2415,
      "a;PP;": 2416,
      "a;aaaaaa": 2417,
      "ee;zzzzz": 2418,
      "ee;ee;": 2419,
      "PPPPPPPL": 2420,
      "qqqp\\": 2421,
      "KKKKK": 2422,
      "~_tttttt": 2423,
      "~_cccccc": 2424,
      "sssss;": 2425,
      "K;;K": 2426,
      "K;;~~~": 2427,
      "iT~~~~~~": 2428,
      "tot": 2429,
      "~~PP~~~~": 2430,
      "Kkp": 2431,
      "YYii": 2432,
      "tt_~~": 2433,
      "tt_~~~~~": 2434,
      "swwwwww": 2435,
      "HHH": 2436,
      "`upu": 2437,
      "swO": 2438,
      "~~~~Kttt": 2439,
      "dd;d": 2440,
      "~~~~~Ktt": 2441,
      "~~~~~K`K": 2442,
      "LvLL": 2443,
      "~~~~;;xx": 2444,
      ";;;;;;;P": 2445,
      "vv\\zz": 2446,
      "vv\\u;uuu": 2447,
      "ccccccOc": 2448,
      "cccccc_~": 2449,
      "ppppppp;": 2450,
      "ppppppp_": 2451,
      ";__ttttt": 2452,
      "Oddyyyyy": 2453,
      "\\pqqq": 2454,
      ";e~z;PPP": 2455,
      "Oy~~~~~~": 2456,
      "~~f~~~~f": 2457,
      "dddddddO": 2458,
      "uPu": 2459,
      "uPuuuu": 2460,
      "y_y": 2461,
      "~f~~~~~~": 2462,
      "~fa~~~~~": 2463,
      "~~e~~~~~": 2464,
      "vvvvvvv;": 2465,
      ";????": 2466,
      "K;;;K": 2467,
      "KsK": 2468,
      "kq[": 2469,
      "~~~~Oyyy": 2470,
      "~~~~K_K~": 2471,
      "yydzz": 2472,
      "~~~_tttt": 2473,
      "bbbQj": 2474,
      "eP;~~~~~": 2475,
      "txxtt": 2476,
      "~~z;~~~~": 2477,
      "ccOccc": 2478,
      "ccOccccc": 2479,
      "QQQQQP": 2480,
      "K`K~~~~~": 2481,
      "\\~~~\\p": 2482,
      "tooK": 2483,
      "yueeeeee": 2484,
      "aa\\~~~~~": 2485,
      "aa\\aaa": 2486,
      "PPPPPP;d": 2487,
      "ccccccc;": 2488,
      "llllllqq": 2489,
      "~K_K~~~~": 2490,
      "~~zP~~~~": 2491,
      "~~~~~PzP": 2492,
      ";kqq": 2493,
      "UjjQ": 2494,
      "~;;;;~~~": 2495,
      "~~~;;;;P": 2496,
      "~~~;;;;~": 2497,
      "~~~~~~L`": 2498,
      "P;;;;~~~": 2499,
      "hhc": 2500,
      "~?~~~~~~": 2501,
      "PPP;~~;;": 2502,
      "uuu;u\\vv": 2503,
      "P```````": 2504,
      "~~aa~~~~": 2505,
      "zzQzzzzz": 2506,
      "cccccOcc": 2507,
      "cxOvvvvv": 2508,
      "~~~~~af~": 2509,
      "~~~~~~qv": 2510,
      "f~~~~f~~": 2511,
      "iyT~~~~~": 2512,
      "~~~~aa~~": 2513,
      "ddyyydzz": 2514,
      "~~~~~Tyi": 2515,
      "PPP;z~e;": 2516,
      "vvvvvOxc": 2517,
      ";<": 2518,
      ";C": 2519,
      ";d": 2520,
      ";tt": 2521,
      ";zzzz": 2522,
      ";vv": 2523,
      ";xxxx": 2524,
      ";yyyy": 2525,
      ";qq": 2526,
      ";jj": 2527,
      ";kk": 2528,
      ";uuuu": 2529,
      ";ddd": 2530,
      ";x_": 2531,
      ";OOO": 2532,
      ";uuu": 2533,
      ";~~~~~~;": 2534,
      ";\\\\": 2535,
      ";xxxxx": 2536,
      ";ooo": 2537,
      ";PPP;": 2538,
      ";````": 2539,
      ";[;": 2540,
      ";QQQQ": 2541,
      ";SSS": 2542,
      ";ss;": 2543,
      ";s;": 2544,
      ";t;": 2545,
      ";xxx;": 2546,
      ";eeeeeee": 2547,
      ";yy;": 2548,
      ";uP": 2549,
      ";jjj": 2550,
      ";sss;": 2551,
      ";yPyP": 2552,
      ";__;d": 2553,
      ";xxxxxxK": 2554,
      ";qqqqq;~": 2555,
      "<~~~~": 2556,
      "<ee": 2557,
      "<PPPP": 2558,
      "<PPPPP": 2559,
      "<zee": 2560,
      "<PP<": 2561,
      "?`": 2562,
      "?zz": 2563,
      "?;;": 2564,
      "?OO": 2565,
      "?cc": 2566,
      "?PPP": 2567,
      "?~~~;": 2568,
      "?OOO": 2569,
      "?~O": 2570,
      "?CC": 2571,
      "?gggg": 2572,
      "?SSS?": 2573,
      "@P": 2574,
      "@j": 2575,
      "@~~~~": 2576,
      "@~~~~~~~": 2577,
      "@P;": 2578,
      "@;~~": 2579,
      "@PP;": 2580,
      "@;eee": 2581,
      "C;": 2582,
      "CH": 2583,
      "C???": 2584,
      "KO": 2585,
      "Ka": 2586,
      "Kxx": 2587,
      "Kcc": 2588,
      "Kaaaa": 2589,
      "K~~;": 2590,
      "K~~~~~~;": 2591,
      "K;~~~~~~": 2592,
      "K`p": 2593,
      "Kqqq": 2594,
      "Ksssss": 2595,
      "Kuuuuuuu": 2596,
      "KaPa": 2597,
      "LP": 2598,
      "L~~": 2599,
      "L~~~~~": 2600,
      "L``": 2601,
      "L;~~": 2602,
      "Laaa": 2603,
      "L````": 2604,
      "Lqqqqq": 2605,
      "Laaaaaaa": 2606,
      "L`eee": 2607,
      "LPL": 2608,
      "OK": 2609,
      "OY": 2610,
      "O_": 2611,
      "Oa": 2612,
      "Ouu": 2613,
      "Otttt": 2614,
      "O;~": 2615,
      "O;~~": 2616,
      "Oppp": 2617,
      "O~~~~~~;": 2618,
      "Ozzzzzzz": 2619,
      "OdO": 2620,
      "Offf": 2621,
      "OddO": 2622,
      "O;;;;;": 2623,
      "Oy;": 2624,
      "OPP;;": 2625,
      "OPPPPPPP": 2626,
      "Owwwww": 2627,
      "Oiiz": 2628,
      "OP;~~": 2629,
      "OwwwO": 2630,
      "O~~;dddd": 2631,
      "P@": 2632,
      "PT": 2633,
      "Pj": 2634,
      "P__": 2635,
      "Pdd": 2636,
      "Poo": 2637,
      "Ppp": 2638,
      "Pii": 2639,
      "P``": 2640,
      "Pyyy": 2641,
      "Pppp": 2642,
      "P@@": 2643,
      "Puuu": 2644,
      "PO;": 2645,
      "Pooo": 2646,
      "Peeeeeee": 2647,
      "PT~": 2648,
      "PLLL": 2649,
      "P@@@": 2650,
      "PUUUUUUU": 2651,
      "Qj": 2652,
      "Qv": 2653,
      "Qbb": 2654,
      "Qeee": 2655,
      "QP~": 2656,
      "Q;~~~~~~": 2657,
      "QPP;": 2658,
      "QPz": 2659,
      "Qez": 2660,
      "Qeeeeee": 2661,
      "QPPQQ": 2662,
      "S~~~~~~~": 2663,
      "Swwwww": 2664,
      "Sp~": 2665,
      "S??S": 2666,
      "SpS": 2667,
      "TOO": 2668,
      "T~~~~~~": 2669,
      "T;~~~~": 2670,
      "TOOO": 2671,
      "TO~": 2672,
      "TO~~": 2673,
      "TO~~~~~~": 2674,
      "Tiiiiii": 2675,
      "Tiiiii": 2676,
      "U~~": 2677,
      "UPPP;": 2678,
      "Ujjj": 2679,
      "YO": 2680,
      "[K": 2681,
      "[tt": 2682,
      "[xxxx": 2683,
      "[;;;": 2684,
      "[PP;": 2685,
      "[pppp": 2686,
      "[uK": 2687,
      "[eeeeeee": 2688,
      "[k[": 2689,
      "\\;;;": 2690,
      "\\aaaa": 2691,
      "\\qq": 2692,
      "\\~~~~;": 2693,
      "\\vvv": 2694,
      "\\z~": 2695,
      "_f": 2696,
      "_p": 2697,
      "_s": 2698,
      "_w": 2699,
      "_PP": 2700,
      "_tttt": 2701,
      "_~~;": 2702,
      "_;~~~~": 2703,
      "_ppp": 2704,
      "_yyyyy": 2705,
      "_xxxxxx": 2706,
      "_OOOO": 2707,
      "_Pz": 2708,
      "_QQQ": 2709,
      "_zzzzzzz": 2710,
      "_ffff": 2711,
      "_t_": 2712,
      "_;;~": 2713,
      "_xxx_": 2714,
      "_~~_": 2715,
      "_;;;;;;;": 2716,
      "_KKK": 2717,
      "_cccccc": 2718,
      "_pppppp": 2719,
      "_y_": 2720,
      "_Qee": 2721,
      "_pp_": 2722,
      "_ooo_": 2723,
      "`a": 2724,
      "`OO": 2725,
      "`PPP": 2726,
      "`PPPPP": 2727,
      "`zzzzzz": 2728,
      "`uuuuu": 2729,
      "`PPPPPPP": 2730,
      "`uu;": 2731,
      "`eeeeeee": 2732,
      "`y~~~~~y": 2733,
      "az": 2734,
      "aPP": 2735,
      "aPPP": 2736,
      "aP~": 2737,
      "aP~~": 2738,
      "aK;": 2739,
      "arrrr": 2740,
      "aP;;": 2741,
      "aPPPPPPP": 2742,
      "arrr": 2743,
      "aLa": 2744,
      "aPee": 2745,
      "avL": 2746,
      "a\\a": 2747,
      "aPzPaaa": 2748,
      "b;~": 2749,
      "b;~~~~~~": 2750,
      "bQQQ": 2751,
      "cP": 2752,
      "ch": 2753,
      "c____": 2754,
      "c;~~~~": 2755,
      "cP~": 2756,
      "cddd": 2757,
      "cO;": 2758,
      "cwww": 2759,
      "c;O": 2760,
      "c_;": 2761,
      "cxx_": 2762,
      "cK~": 2763,
      "cxxx_": 2764,
      "c;;;;;;": 2765,
      "du": 2766,
      "dzz": 2767,
      "dcc": 2768,
      "d;;;": 2769,
      "d``": 2770,
      "dzzz": 2771,
      "d;~": 2772,
      "duuuuu": 2773,
      "d~~~z": 2774,
      "d;;;d": 2775,
      "eT": 2776,
      "ea": 2777,
      "eo": 2778,
      "eyy": 2779,
      "e~~~~~": 2780,
      "e~~~~~~~": 2781,
      "ePPP": 2782,
      "e;~": 2783,
      "e;~~": 2784,
      "eyyyyy": 2785,
      "eP~~": 2786,
      "ePz": 2787,
      "ezzzzzz": 2788,
      "e;PPPP": 2789,
      "e;PPP": 2790,
      "e```": 2791,
      "f~~~~": 2792,
      "fzz": 2793,
      "fzzzz": 2794,
      "f~~~~~~~": 2795,
      "f~~;": 2796,
      "f;~~~~~~": 2797,
      "fzzzzzzz": 2798,
      "f~~f": 2799,
      "fQQ<": 2800,
      "f~~~f~~~": 2801,
      "f~a~~~~~": 2802,
      "gww": 2803,
      "g;~": 2804,
      "gwww": 2805,
      "gSSS": 2806,
      "gS?": 2807,
      "hc": 2808,
      "i;~~~~~~": 2809,
      "iOT": 2810,
      "jQ": 2811,
      "j~~": 2812,
      "j~~~": 2813,
      "jUUUU": 2814,
      "jUUUUUUU": 2815,
      "kpp": 2816,
      "kqq": 2817,
      "kK;": 2818,
      "kK~": 2819,
      "lu": 2820,
      "lzz": 2821,
      "luu": 2822,
      "l;;;;": 2823,
      "lK~": 2824,
      "l~K": 2825,
      "lu;": 2826,
      "oy": 2827,
      "oz": 2828,
      "oxx": 2829,
      "o;;": 2830,
      "ott": 2831,
      "o~~~~~": 2832,
      "oOO": 2833,
      "opp": 2834,
      "oKK": 2835,
      "o;~~~~~~": 2836,
      "o_K": 2837,
      "oK;": 2838,
      "oe`": 2839,
      "o_o": 2840,
      "o__o": 2841,
      "oyyyo": 2842,
      "p`": 2843,
      "puu": 2844,
      "pqq": 2845,
      "p____": 2846,
      "p[[": 2847,
      "poooo": 2848,
      "p\\\\": 2849,
      "p[[[": 2850,
      "p`p": 2851,
      "p;zz": 2852,
      "pP~~~~~~": 2853,
      "pkK": 2854,
      "pL~~~~~~": 2855,
      "q~~~~~~~": 2856,
      "q;;;": 2857,
      "q;~~~~~~": 2858,
      "qKk": 2859,
      "qrrrrr": 2860,
      "qp\\": 2861,
      "q[~": 2862,
      "qP~~~~~~": 2863,
      "qu~": 2864,
      "rq": 2865,
      "r;~~~": 2866,
      "s~~~~~": 2867,
      "sKK": 2868,
      "s;;;;": 2869,
      "s;_": 2870,
      "s;PP": 2871,
      "sO~~": 2872,
      "sx_f": 2873,
      "t__": 2874,
      "t;~": 2875,
      "t;~~": 2876,
      "t;O": 2877,
      "txxxxxxx": 2878,
      "tKo": 2879,
      "tOOOOO": 2880,
      "tOt": 2881,
      "uv": 2882,
      "u~~": 2883,
      "uqq": 2884,
      "uyyy": 2885,
      "uK~": 2886,
      "u~z": 2887,
      "uz;": 2888,
      "u`;": 2889,
      "u\\zz": 2890,
      "uvvvv\\vv": 2891,
      "ukkku": 2892,
      "u`uuuu": 2893,
      "vaa": 2894,
      "v\\\\": 2895,
      "v;~~~~~~": 2896,
      "vz~": 2897,
      "va~": 2898,
      "v\\v": 2899,
      "vLL~~~~~": 2900,
      "wy": 2901,
      "wyyyy": 2902,
      "wSS": 2903,
      "w;~~~~~~": 2904,
      "wO~": 2905,
      "w_;": 2906,
      "wsO": 2907,
      "w;w": 2908,
      "wyw": 2909,
      "wsssw": 2910,
      "xo": 2911,
      "xOO": 2912,
      "xcc": 2913,
      "xtttt": 2914,
      "x;;;;": 2915,
      "x;~~~": 2916,
      "xK~~~": 2917,
      "xtt_": 2918,
      "xc_": 2919,
      "xL~~~": 2920,
      "yxxxx": 2921,
      "yP~": 2922,
      "yxxxxx": 2923,
      "yx;": 2924,
      "yddO": 2925,
      "ydddd;": 2926,
      "y~d": 2927,
      "y;_ttt": 2928,
      "yOOOy": 2929,
      "yT~~~~~~": 2930,
      "zL": 2931,
      "z;;": 2932,
      "zyy": 2933,
      "zPPPP": 2934,
      "z;;;": 2935,
      "zQQ": 2936,
      "z``": 2937,
      "z;;;;": 2938,
      "zff": 2939,
      "z;~": 2940,
      "z;~~": 2941,
      "zO~": 2942,
      "z;PP": 2943,
      "z\\vv": 2944,
      "z\\\\\\": 2945,
      "zdz": 2946,
      "z?S": 2947,
      "zeeee;": 2948,
      "ziO~": 2949,
      "~`": 2950,
      "~zzzz": 2951,
      "~ii": 2952,
      "~tttt": 2953,
      "~O;": 2954,
      "~zzzzzz": 2955,
      "~yyyyyyy": 2956,
      "~dy": 2957,
      "~Ko": 2958,
      "~e~": 2959,
      "~;;;;;;": 2960,
      "~OOOOO": 2961,
      "~iT": 2962,
      "~PP~~": 2963,
      "~`uuu": 2964,
      "~PPee": 2965,
      "~jUj": 2966,
      "~kp": 2967,
      "~kKq": 2968,
      "~~U": 2969,
      "~~__": 2970,
      "~~dd": 2971,
      "~~eeee": 2972,
      "~~___": 2973,
      "~~OOO": 2974,
      "~~ppp": 2975,
      "~~aaa": 2976,
      "~~LL": 2977,
      "~~ez": 2978,
      "~~aaaaaa": 2979,
      "~~;;~": 2980,
      "~~dy": 2981,
      "~~e~": 2982,
      "~~K~~~": 2983,
      "~~a;": 2984,
      "~~La": 2985,
      "~~z;": 2986,
      "~~\\\\\\": 2987,
      "~~zze": 2988,
      "~~\\aa": 2989,
      "~~`ppp": 2990,
      "~~ez~~~~": 2991,
      "~~swws": 2992,
      "~~<bb": 2993,
      "~~\\aaaaa": 2994,
      "~~j~~~": 2995,
      "~~~~@": 2996,
      "~~~~`": 2997,
      "~~~~d": 2998,
      "~~~~xx": 2999
    },
    "merges": [
      [
        "~",
        "~"
      ],
      [
        "~~",
        "~~"
      ],
      [
        "~~~~",
        "~~~~"
      ],
      [
        "z",
        "z"
      ],
      [
        "O",
        "W"
      ],
      [
        "R",
        "OW"
      ],
      [
        "[",
        "ROW"
      ],
      [
        "[ROW",
        "_"
      ],
      [
        "P",
        "P"
      ],
      [
        "x",
        "x"
      ],
      [
        ";",
        ";"
      ],
      [
        "y",
        "y"
      ],
      [
        "~~",
        "~"
      ],
      [
        "t",
        "t"
      ],
      [
        "a",
        "a"
      ],
      [
        "_",
        "_"
      ],
      [
        "d",
        "d"
      ],
      [
        "e",
        "e"
      ],
      [
        "zz",
        "zz"
      ],
      [
        "u",
        "u"
      ],
      [
        "v",
        "v"
      ],
      [
        "o",
        "o"
      ],
      [
        "~~~~",
        "~"
      ],
      [
        "O",
        "O"
      ],
      [
        "~~~~",
        "~~"
      ],
      [
        "xx",
        "xx"
      ],
      [
        "~~~~",
        "~~~"
      ],
      [
        "c",
        "c"
      ],
      [
        "PP",
        "PP"
      ],
      [
        "s",
        "s"
      ],
      [
        "yy",
        "yy"
      ],
      [
        "p",
        "p"
      ],
      [
        "w",
        "w"
      ],
      [
        "i",
        "i"
      ],
      [
        "[ROW_",
        "0"
      ],
      [
        "[ROW_",
        "1"
      ],
      [
        "[ROW_",
        "2"
      ],
      [
        "[ROW_",
        "3"
      ],
      [
        "[ROW_",
        "4"
      ],
      [
        "[ROW_",
        "5"
      ],
      [
        ";;",
        ";"
      ],
      [
        "tt",
        "tt"
      ],
      [
        "aa",
        "aa"
      ],
      [
        "q",
        "q"
      ],
      [
        "PP",
        "P"
      ],
      [
        "0",
        "]"
      ],
      [
        "1",
        "]"
      ],
      [
        "2",
        "]"
      ],
      [
        "3",
        "]"
      ],
      [
        "Q",
        "Q"
      ],
      [
        "`",
        "`"
      ],
      [
        "4",
        "]"
      ],
      [
        "5",
        "]"
      ],
      [
        "6",
        "]"
      ],
      [
        "7",
        "]"
      ],
      [
        "8",
        "]"
      ],
      [
        "9",
        "]"
      ],
      [
        "K",
        "K"
      ],
      [
        "__",
        "__"
      ],
      [
        "zz",
        "z"
      ],
      [
        ";;",
        ";;"
      ],
      [
        "U",
        "U"
      ],
      [
        "f",
        "f"
      ],
      [
        "xx",
        "x"
      ],
      [
        "[",
        "["
      ],
      [
        "dd",
        "dd"
      ],
      [
        "S",
        "S"
      ],
      [
        ";",
        "~"
      ],
      [
        "T",
        "T"
      ],
      [
        "r",
        "r"
      ],
      [
        "ee",
        "ee"
      ],
      [
        "yy",
        "y"
      ],
      [
        "vv",
        "vv"
      ],
      [
        "P",
        ";"
      ],
      [
        "~",
        ";"
      ],
      [
        "[ROW_",
        "6"
      ],
      [
        "oo",
        "oo"
      ],
      [
        "j",
        "j"
      ],
      [
        "b",
        "b"
      ],
      [
        "k",
        "k"
      ],
      [
        "uu",
        "uu"
      ],
      [
        "~~",
        ";"
      ],
      [
        "?",
        "?"
      ],
      [
        "~~~~",
        ";"
      ],
      [
        ";",
        "~~~~"
      ],
      [
        "cc",
        "cc"
      ],
      [
        "__",
        "_"
      ],
      [
        "ee",
        "e"
      ],
      [
        "P",
        "~"
      ],
      [
        "zzzz",
        "zzzz"
      ],
      [
        ";",
        "~~"
      ],
      [
        "dd",
        "d"
      ],
      [
        ";",
        "~~~~~~~"
      ],
      [
        "tt",
        "t"
      ],
      [
        "~~~~~~~",
        ";"
      ],
      [
        "~~~",
        ";"
      ],
      [
        "x",
        "_"
      ],
      [
        "ii",
        "ii"
      ],
      [
        "~~~~~",
        ";"
      ],
      [
        "OO",
        "O"
      ],
      [
        "ww",
        "ww"
      ],
      [
        "pp",
        "p"
      ],
      [
        ";",
        "~~~"
      ],
      [
        ";",
        "~~~~~"
      ],
      [
        "@",
        "@"
      ],
      [
        "g",
        "g"
      ],
      [
        "ss",
        "s"
      ],
      [
        "uu",
        "u"
      ],
      [
        "~~~~~~",
        ";"
      ],
      [
        "zzzz",
        "z"
      ],
      [
        "yyyy",
        "y"
      ],
      [
        "aa",
        "a"
      ],
      [
        "~",
        "P"
      ],
      [
        "K",
        "_"
      ],
      [
        "\\",
        "\\"
      ],
      [
        "xxxx",
        "xx"
      ],
      [
        ";",
        "P"
      ],
      [
        ";",
        "~~~~~~"
      ],
      [
        "O",
        ";"
      ],
      [
        "OO",
        "OO"
      ],
      [
        "cc",
        "c"
      ],
      [
        "P",
        "~~"
      ],
      [
        "vv",
        "v"
      ],
      [
        "ww",
        "w"
      ],
      [
        "PP",
        ";"
      ],
      [
        "P",
        "z"
      ],
      [
        "xxxx",
        "xxxx"
      ],
      [
        "PPPP",
        "P"
      ],
      [
        "ss",
        "ss"
      ],
      [
        "qq",
        "qq"
      ],
      [
        "L",
        "L"
      ],
      [
        "xxxx",
        "x"
      ],
      [
        "_",
        "x"
      ],
      [
        "pp",
        "pp"
      ],
      [
        "UU",
        "UU"
      ],
      [
        "P",
        "e"
      ],
      [
        "_",
        "K"
      ],
      [
        ";",
        "O"
      ],
      [
        "PPPP",
        "PP"
      ],
      [
        "oo",
        "o"
      ],
      [
        "QQ",
        "Q"
      ],
      [
        "K",
        ";"
      ],
      [
        "O",
        "~"
      ],
      [
        "tttt",
        "t"
      ],
      [
        "z",
        "e"
      ],
      [
        "PPP",
        ";"
      ],
      [
        "_",
        ";"
      ],
      [
        "l",
        "l"
      ],
      [
        "yyyy",
        "yy"
      ],
      [
        "yyyy",
        "yyyy"
      ],
      [
        "P",
        "~~~~~~~"
      ],
      [
        "~",
        "O"
      ],
      [
        "~~~~~~~",
        "P"
      ],
      [
        "tttt",
        "tt"
      ],
      [
        "``",
        "``"
      ],
      [
        "xx",
        "_"
      ],
      [
        "zzzz",
        "zz"
      ],
      [
        "zzzz",
        "zzz"
      ],
      [
        "P",
        "zz"
      ],
      [
        "z",
        "~"
      ],
      [
        "aaaa",
        "aaaa"
      ],
      [
        "<",
        "<"
      ],
      [
        "d",
        "O"
      ],
      [
        "PPPP",
        "PPPP"
      ],
      [
        "rr",
        "rr"
      ],
      [
        "ii",
        "i"
      ],
      [
        "ff",
        "ff"
      ],
      [
        "SS",
        "SS"
      ],
      [
        "TT",
        "T"
      ],
      [
        "[ROW_0",
        "0]"
      ],
      [
        "[ROW_0",
        "1]"
      ],
      [
        "[ROW_0",
        "2]"
      ],
      [
        "[ROW_0",
        "3]"
      ],
      [
        "[ROW_0",
        "4]"
      ],
      [
        "[ROW_0",
        "5]"
      ],
      [
        "[ROW_0",
        "6]"
      ],
      [
        "[ROW_0",
        "7]"
      ],
      [
        "[ROW_0",
        "8]"
      ],
      [
        "[ROW_0",
        "9]"
      ],
      [
        "[ROW_1",
        "0]"
      ],
      [
        "[ROW_1",
        "1]"
      ],
      [
        "[ROW_1",
        "2]"
      ],
      [
        "[ROW_1",
        "3]"
      ],
      [
        "[ROW_1",
        "4]"
      ],
      [
        "[ROW_1",
        "5]"
      ],
      [
        "[ROW_1",
        "6]"
      ],
      [
        "[ROW_1",
        "7]"
      ],
      [
        "[ROW_1",
        "8]"
      ],
      [
        "[ROW_1",
        "9]"
      ],
      [
        "[ROW_2",
        "0]"
      ],
      [
        "[ROW_2",
        "1]"
      ],
      [
        "[ROW_2",
        "2]"
      ],
      [
        "[ROW_2",
        "3]"
      ],
      [
        "[ROW_2",
        "4]"
      ],
      [
        "[ROW_2",
        "5]"
      ],
      [
        "[ROW_2",
        "6]"
      ],
      [
        "[ROW_2",
        "7]"
      ],
      [
        "[ROW_2",
        "8]"
      ],
      [
        "[ROW_2",
        "9]"
      ],
      [
        "[ROW_3",
        "0]"
      ],
      [
        "[ROW_3",
        "1]"
      ],
      [
        "[ROW_3",
        "2]"
      ],
      [
        "[ROW_3",
        "3]"
      ],
      [
        "[ROW_3",
        "4]"
      ],
      [
        "[ROW_3",
        "5]"
      ],
      [
        "[ROW_3",
        "6]"
      ],
      [
        "[ROW_3",
        "7]"
      ],
      [
        "[ROW_3",
        "8]"
      ],
      [
        "[ROW_3",
        "9]"
      ],
      [
        "[ROW_4",
        "0]"
      ],
      [
        "[ROW_4",
        "1]"
      ],
      [
        "[ROW_4",
        "2]"
      ],
      [
        "[ROW_4",
        "3]"
      ],
      [
        "[ROW_4",
        "4]"
      ],
      [
        "[ROW_4",
        "5]"
      ],
      [
        "[ROW_4",
        "6]"
      ],
      [
        "[ROW_4",
        "7]"
      ],
      [
        "[ROW_4",
        "8]"
      ],
      [
        "[ROW_4",
        "9]"
      ],
      [
        "[ROW_5",
        "0]"
      ],
      [
        "[ROW_5",
        "1]"
      ],
      [
        "[ROW_5",
        "2]"
      ],
      [
        "[ROW_5",
        "3]"
      ],
      [
        "[ROW_5",
        "4]"
      ],
      [
        "[ROW_5",
        "5]"
      ],
      [
        "[ROW_5",
        "6]"
      ],
      [
        "[ROW_5",
        "7]"
      ],
      [
        "[ROW_5",
        "8]"
      ],
      [
        "[ROW_5",
        "9]"
      ],
      [
        "[ROW_6",
        "0]"
      ],
      [
        "[ROW_6",
        "1]"
      ],
      [
        "[ROW_6",
        "2]"
      ],
      [
        "[ROW_6",
        "3]"
      ],
      [
        ";",
        "K"
      ],
      [
        "e",
        "z"
      ],
      [
        ";",
        "_"
      ],
      [
        "~~",
        "P"
      ],
      [
        "aaaa",
        "aa"
      ],
      [
        "X",
        "X"
      ],
      [
        "xxxx",
        "xxx"
      ],
      [
        "[[",
        "["
      ],
      [
        "K",
        "~"
      ],
      [
        "C",
        "C"
      ],
      [
        "P",
        "~~~"
      ],
      [
        ";;",
        "~~~~~~"
      ],
      [
        "~~~~~~",
        ";;"
      ],
      [
        "dddd",
        "d"
      ],
      [
        "O",
        "d"
      ],
      [
        "P",
        ";;"
      ],
      [
        "`",
        "e"
      ],
      [
        "~",
        "z"
      ],
      [
        "tttt",
        "tttt"
      ],
      [
        "ff",
        "f"
      ],
      [
        "bb",
        "bb"
      ],
      [
        ";",
        "PP"
      ],
      [
        ";",
        "PPPP"
      ],
      [
        "t",
        "_"
      ],
      [
        "xx",
        ";"
      ],
      [
        ";;",
        "~"
      ],
      [
        ";",
        "PPP"
      ],
      [
        "yyyy",
        "yyy"
      ],
      [
        "??",
        "?"
      ],
      [
        "K",
        "u"
      ],
      [
        "K",
        "~~"
      ],
      [
        "[",
        ";"
      ],
      [
        "d",
        "y"
      ],
      [
        "aaaa",
        "a"
      ],
      [
        "QQ",
        "QQ"
      ],
      [
        "xxx",
        "_"
      ],
      [
        "jj",
        "jj"
      ],
      [
        "~",
        ";;"
      ],
      [
        "~~",
        "O"
      ],
      [
        "``",
        "`"
      ],
      [
        "O",
        "~~"
      ],
      [
        "K",
        "o"
      ],
      [
        "O",
        "~~~"
      ],
      [
        "e",
        "P"
      ],
      [
        "__",
        ";"
      ],
      [
        "SS",
        "S"
      ],
      [
        "uuuu",
        "u"
      ],
      [
        "d",
        ";"
      ],
      [
        "e",
        "`"
      ],
      [
        "x",
        ";"
      ],
      [
        "z",
        "P"
      ],
      [
        "~~~",
        "O"
      ],
      [
        "[[",
        "[["
      ],
      [
        "qqqq",
        "q"
      ],
      [
        "c",
        "O"
      ],
      [
        "y",
        "d"
      ],
      [
        "ss",
        ";"
      ],
      [
        "P",
        "~~~~~"
      ],
      [
        "_",
        "t"
      ],
      [
        "~~",
        ";;"
      ],
      [
        "eeee",
        "ee"
      ],
      [
        "kk",
        "k"
      ],
      [
        "K",
        "~~~~~"
      ],
      [
        "s",
        ";"
      ],
      [
        "P",
        "a"
      ],
      [
        "e",
        "~"
      ],
      [
        ";;;;",
        ";;"
      ],
      [
        "gg",
        "gg"
      ],
      [
        "K",
        "~~~~"
      ],
      [
        "O",
        "c"
      ],
      [
        "~",
        "e"
      ],
      [
        "~~~",
        "P"
      ],
      [
        "dd",
        "O"
      ],
      [
        "OO",
        "OOO"
      ],
      [
        "pp",
        "ppp"
      ],
      [
        "aaaa",
        "aaa"
      ],
      [
        "eeee",
        "e"
      ],
      [
        "vvvv",
        "vv"
      ],
      [
        "K",
        "~~~~~~~"
      ],
      [
        "u",
        "K"
      ],
      [
        "~",
        "K"
      ],
      [
        "~~~~~~~",
        "K"
      ],
      [
        "O",
        "~~~~~~~"
      ],
      [
        "t",
        ";"
      ],
      [
        ";;",
        "P"
      ],
      [
        ";;",
        "~~"
      ],
      [
        "~~~~~~~",
        "O"
      ],
      [
        "____",
        "_"
      ],
      [
        "____",
        "____"
      ],
      [
        "UU",
        "U"
      ],
      [
        "dddd",
        "dd"
      ],
      [
        "TT",
        "TT"
      ],
      [
        "@@",
        "@@"
      ],
      [
        "\\",
        "vv"
      ],
      [
        "b",
        "Q"
      ],
      [
        "e",
        ";"
      ],
      [
        ";;",
        ";;;"
      ],
      [
        "____",
        "__"
      ],
      [
        "K",
        "~~~"
      ],
      [
        "vvvv",
        "v"
      ],
      [
        "oooo",
        "o"
      ],
      [
        "S",
        "?"
      ],
      [
        "c",
        ";"
      ],
      [
        "o",
        "`e"
      ],
      [
        "y",
        ";"
      ],
      [
        "PPPP",
        "P;"
      ],
      [
        ";;;",
        "~"
      ],
      [
        "`",
        "p"
      ],
      [
        "a",
        ";"
      ],
      [
        "y",
        "O"
      ],
      [
        "y",
        "P"
      ],
      [
        "PP",
        ";;"
      ],
      [
        "ee",
        ";"
      ],
      [
        "PPPP",
        "PPP"
      ],
      [
        "qq",
        "q"
      ],
      [
        "KK",
        "KK"
      ],
      [
        "vvvv",
        "vvvv"
      ],
      [
        "oooo",
        "oooo"
      ],
      [
        "_",
        "xx"
      ],
      [
        ";;",
        "PP"
      ],
      [
        ";",
        "["
      ],
      [
        "P",
        "~~~~"
      ],
      [
        "e",
        "zz"
      ],
      [
        "~",
        "_"
      ],
      [
        "~~~",
        "z"
      ],
      [
        "ss",
        "sss"
      ],
      [
        "dddd",
        "dddd"
      ],
      [
        "rr",
        "r"
      ],
      [
        "K",
        ";;"
      ],
      [
        "i",
        "T"
      ],
      [
        "t",
        "o"
      ],
      [
        "x",
        "y"
      ],
      [
        "~~",
        "PP"
      ],
      [
        "~~~~~",
        ";;;"
      ],
      [
        "xxxx",
        "x_"
      ],
      [
        "ww",
        "s"
      ],
      [
        ";;;",
        "~~~~~"
      ],
      [
        "cccc",
        "c"
      ],
      [
        "K",
        "k"
      ],
      [
        "L",
        "a"
      ],
      [
        "P",
        "ee"
      ],
      [
        "Y",
        "Y"
      ],
      [
        "f",
        "Q"
      ],
      [
        ";;",
        "_"
      ],
      [
        "tt",
        "_"
      ],
      [
        "uu",
        ";"
      ],
      [
        "____",
        "___"
      ],
      [
        "kk",
        "kk"
      ],
      [
        "e`",
        "o"
      ],
      [
        "s",
        "wwww"
      ],
      [
        "~",
        "a"
      ],
      [
        "~",
        ";;;"
      ],
      [
        "~~",
        "K"
      ],
      [
        "~~",
        "_"
      ],
      [
        "PP",
        "~~"
      ],
      [
        "xxx",
        ";"
      ],
      [
        ";~",
        ";"
      ],
      [
        "H",
        "H"
      ],
      [
        "`",
        "u"
      ],
      [
        "q",
        ";"
      ],
      [
        "s",
        "w"
      ],
      [
        "~~~~",
        "K"
      ],
      [
        "yy",
        "O"
      ],
      [
        "dd",
        ";"
      ],
      [
        "~~~~~",
        "K"
      ],
      [
        "xxxx",
        "_"
      ],
      [
        ";;;;",
        ";;;;"
      ],
      [
        "eeee",
        "eee"
      ],
      [
        "P;",
        "~~~~~~"
      ],
      [
        "oooo",
        "oo"
      ],
      [
        "uuuu",
        "uuuu"
      ],
      [
        "~~~~~~;",
        "P"
      ],
      [
        "ll",
        "ll"
      ],
      [
        "rrrr",
        "r"
      ],
      [
        ";",
        "?"
      ],
      [
        "K",
        "t"
      ],
      [
        "L",
        "v"
      ],
      [
        "P",
        "`"
      ],
      [
        "`",
        "P"
      ],
      [
        "e",
        "~~"
      ],
      [
        "x",
        "O"
      ],
      [
        "z",
        ";"
      ],
      [
        "~~~~",
        ";;"
      ],
      [
        "PP",
        ";~~~~~"
      ],
      [
        "~~~",
        "f"
      ],
      [
        ";;;;",
        ";;;"
      ],
      [
        "~~~~~;",
        "PP"
      ],
      [
        "\\\\",
        "\\"
      ],
      [
        ";",
        "P;"
      ],
      [
        "O",
        "yy"
      ],
      [
        "P",
        "zzz"
      ],
      [
        "Q",
        "f"
      ],
      [
        "a",
        "~"
      ],
      [
        "d",
        "z"
      ],
      [
        "u",
        ";"
      ],
      [
        "~~~~",
        ";;;;"
      ],
      [
        "vv",
        "\\"
      ],
      [
        "KK",
        "K"
      ],
      [
        ";;;;",
        "~~~~"
      ],
      [
        "cccc",
        "cc"
      ],
      [
        "iiii",
        "iiii"
      ],
      [
        "OOOO",
        "OO"
      ],
      [
        "pppp",
        "pp"
      ],
      [
        "pppp",
        "ppp"
      ],
      [
        ";",
        "__"
      ],
      [
        ";",
        "ss"
      ],
      [
        "?",
        "S"
      ],
      [
        "K",
        "~~~~~~"
      ],
      [
        "O",
        "w"
      ],
      [
        "O",
        "dd"
      ],
      [
        "T",
        "i"
      ],
      [
        "\\",
        "p"
      ],
      [
        "\\",
        "v"
      ],
      [
        "_",
        "~"
      ],
      [
        "_",
        ";;"
      ],
      [
        "d",
        "yy"
      ],
      [
        "z",
        "~~"
      ],
      [
        "~",
        "KK"
      ],
      [
        "~~~~",
        "_"
      ],
      [
        ";",
        "e"
      ],
      [
        "K",
        "q"
      ],
      [
        "O",
        "y"
      ],
      [
        "O",
        "~~~~"
      ],
      [
        "S",
        "~"
      ],
      [
        "_",
        "~~~~~~~"
      ],
      [
        "d",
        "yyy"
      ],
      [
        "p",
        "_"
      ],
      [
        "v",
        "L"
      ],
      [
        "z",
        "~~~"
      ],
      [
        "~~",
        "f"
      ],
      [
        "~~~~~~~",
        "_"
      ],
      [
        "tttt",
        "ttt"
      ],
      [
        "dddd",
        "ddd"
      ],
      [
        "eeee",
        "eeee"
      ],
      [
        ";",
        "zz"
      ],
      [
        ";",
        "PP;"
      ],
      [
        "O",
        "~~~~~~"
      ],
      [
        "P",
        "eee"
      ],
      [
        "[",
        "q"
      ],
      [
        "\\",
        "a"
      ],
      [
        "p",
        "\\"
      ],
      [
        "s",
        "ww"
      ],
      [
        "z",
        "ee"
      ],
      [
        "~~",
        "a"
      ],
      [
        "zz",
        "e"
      ],
      [
        ";;",
        "~~~~"
      ],
      [
        "yy",
        ";"
      ],
      [
        "~~~",
        "K"
      ],
      [
        "tt",
        ";"
      ],
      [
        "wwww",
        "w"
      ],
      [
        "iii",
        "T"
      ],
      [
        ";",
        "a"
      ],
      [
        ";",
        "c"
      ],
      [
        "K",
        "sss"
      ],
      [
        "O",
        "i"
      ],
      [
        "O",
        "t"
      ],
      [
        "O",
        "x"
      ],
      [
        "T",
        "~"
      ],
      [
        "d",
        "~"
      ],
      [
        "u",
        "P"
      ],
      [
        "y",
        "_"
      ],
      [
        "~",
        "f"
      ],
      [
        "~~",
        "e"
      ],
      [
        "PP",
        "~~~"
      ],
      [
        ";;",
        "PPP"
      ],
      [
        "yyy",
        "d"
      ],
      [
        "vvvv",
        "vvv"
      ],
      [
        "jj",
        "j"
      ],
      [
        "iiii",
        "ii"
      ],
      [
        "UUUU",
        "U"
      ],
      [
        "CC",
        "C"
      ],
      [
        ";",
        "s"
      ],
      [
        ";",
        "??"
      ],
      [
        "?",
        "~"
      ],
      [
        "K",
        ";;;"
      ],
      [
        "O",
        ";;"
      ],
      [
        "P",
        "Q"
      ],
      [
        "P",
        ";;;"
      ],
      [
        "\\",
        "aa"
      ],
      [
        "\\",
        "~~~~~~~"
      ],
      [
        "\\",
        "qqqqq"
      ],
      [
        "_",
        "~~"
      ],
      [
        "`",
        "uuu"
      ],
      [
        "a",
        "~~"
      ],
      [
        "b",
        "<"
      ],
      [
        "c",
        "~"
      ],
      [
        "l",
        "uK"
      ],
      [
        "x",
        ";~~~~~~"
      ],
      [
        "~~~~",
        "f"
      ],
      [
        "~~~",
        ";;;"
      ],
      [
        "~~~~~~",
        "_x"
      ],
      [
        "~~~~~~~",
        "\\"
      ],
      [
        "PPPP",
        "PPP;"
      ],
      [
        "x_",
        "~~~~~~"
      ],
      [
        "~~~~~~;",
        "x"
      ],
      [
        ";PPPP",
        "PPP"
      ],
      [
        "Ku",
        "l"
      ],
      [
        "K",
        "s"
      ],
      [
        "O",
        "PP"
      ],
      [
        "Q",
        "z"
      ],
      [
        "_",
        ";~~~~~~"
      ],
      [
        "`",
        ";"
      ],
      [
        "`",
        "~~~"
      ],
      [
        "`",
        "ee"
      ],
      [
        "a",
        "L"
      ],
      [
        "a",
        "\\"
      ],
      [
        "k",
        "q"
      ],
      [
        "s",
        "O"
      ],
      [
        "~",
        "T"
      ],
      [
        "~",
        "OO"
      ],
      [
        "~~~~",
        "O"
      ],
      [
        "~~~~",
        "K_"
      ],
      [
        ";;",
        "~~~"
      ],
      [
        "yy",
        "d"
      ],
      [
        "~~~",
        "PP"
      ],
      [
        "OO",
        "~"
      ],
      [
        "OO",
        "~~~~~~"
      ],
      [
        "~~~~~~",
        "OO"
      ],
      [
        "PPPP",
        ";~~~"
      ],
      [
        ";;;",
        "~~~"
      ],
      [
        "___",
        ";"
      ],
      [
        "~~~;",
        "PPPP"
      ],
      [
        "uuu",
        ";"
      ],
      [
        "~~~~~~;",
        "_"
      ],
      [
        "\\\\",
        "\\\\"
      ],
      [
        "ssss",
        "ss"
      ],
      [
        "<<",
        "<"
      ],
      [
        "XX",
        "X"
      ],
      [
        "xx;",
        "xx"
      ],
      [
        "jjjj",
        "j"
      ],
      [
        "@@@@",
        "@"
      ],
      [
        ";",
        "y"
      ],
      [
        ";",
        "ee"
      ],
      [
        "?",
        "SSSS"
      ],
      [
        "K",
        "c"
      ],
      [
        "K",
        "tt"
      ],
      [
        "K",
        "oo"
      ],
      [
        "O",
        "TT"
      ],
      [
        "P",
        "d"
      ],
      [
        "[",
        "~"
      ],
      [
        "_",
        "o"
      ],
      [
        "k",
        ";"
      ],
      [
        "x",
        "yyy"
      ],
      [
        "z",
        "d"
      ],
      [
        "z",
        "~~~~"
      ],
      [
        "PP",
        "ee"
      ],
      [
        ";;",
        "O"
      ],
      [
        "~~~",
        "_"
      ],
      [
        "~~~",
        "`"
      ],
      [
        ";;;",
        "_"
      ],
      [
        "bb",
        "bQ"
      ],
      [
        "uuuu",
        "uu"
      ],
      [
        "LL",
        "L"
      ],
      [
        ";",
        "p"
      ],
      [
        "S",
        "gg"
      ],
      [
        "\\",
        ";"
      ],
      [
        "\\",
        "q"
      ],
      [
        "\\",
        "~~"
      ],
      [
        "_",
        "K_"
      ],
      [
        "`",
        "o"
      ],
      [
        "c",
        "t"
      ],
      [
        "d",
        "OO"
      ],
      [
        "d",
        ";~~~~~~"
      ],
      [
        "e",
        "P;"
      ],
      [
        "t",
        "xx"
      ],
      [
        "~",
        "zz"
      ],
      [
        "~~",
        "z"
      ],
      [
        "~~",
        ";;;;"
      ],
      [
        "~~~~",
        "zz"
      ],
      [
        "zz",
        "~~~~"
      ],
      [
        "PP",
        "~"
      ],
      [
        "PP",
        "~~~~~~"
      ],
      [
        "xx",
        "t"
      ],
      [
        "oo",
        "ee"
      ],
      [
        "oo",
        "e`o"
      ],
      [
        "~~~~~~",
        "PP"
      ],
      [
        "~~~~~~",
        "KK"
      ],
      [
        "~~~~~~",
        "Pz"
      ],
      [
        "cc",
        "O"
      ],
      [
        "PPPP",
        ";"
      ],
      [
        ";;;",
        "P"
      ],
      [
        "PPP",
        ";~~~~"
      ],
      [
        "QQ",
        "QQQ"
      ],
      [
        "KK",
        "~~~~~~"
      ],
      [
        "jj",
        "U"
      ],
      [
        "~~~~;",
        "PPP"
      ],
      [
        "@@",
        "@"
      ],
      [
        "~~~~~~;",
        "d"
      ],
      [
        "www",
        "s"
      ],
      [
        "````",
        "``"
      ],
      [
        "zP",
        "~~~~~~"
      ],
      [
        "o`e",
        "oo"
      ],
      [
        ";",
        "x"
      ],
      [
        ";",
        "z"
      ],
      [
        "K",
        "`"
      ],
      [
        "O",
        "T"
      ],
      [
        "P",
        ";~"
      ],
      [
        "P",
        "ddd"
      ],
      [
        "P",
        "aaa"
      ],
      [
        "Q",
        "P"
      ],
      [
        "U",
        "j"
      ],
      [
        "\\",
        "zz"
      ],
      [
        "\\",
        "~~~"
      ],
      [
        "_",
        "tt"
      ],
      [
        "`",
        "K"
      ],
      [
        "`",
        "~~~~~"
      ],
      [
        "a",
        "f"
      ],
      [
        "c",
        "_"
      ],
      [
        "c",
        "x"
      ],
      [
        "c",
        "xx"
      ],
      [
        "t",
        "y"
      ],
      [
        "t",
        "oo"
      ],
      [
        "x",
        "t"
      ],
      [
        "zz",
        "P~~~~~"
      ],
      [
        ";;",
        "[["
      ],
      [
        "~~~",
        ";;"
      ],
      [
        "dd",
        "yyy"
      ],
      [
        "ee",
        "z"
      ],
      [
        "~~~~~",
        "O"
      ],
      [
        "~~~~~",
        "Pzz"
      ],
      [
        "OO",
        "T"
      ],
      [
        ";;;",
        "~~"
      ],
      [
        "PPP",
        "~"
      ],
      [
        "KK",
        "~"
      ],
      [
        "xxx",
        "t"
      ],
      [
        "dddd",
        ";"
      ],
      [
        "bb",
        "b"
      ],
      [
        "uuuu",
        "uuu"
      ],
      [
        "sss",
        ";"
      ],
      [
        "PPPPP",
        ";;"
      ],
      [
        "````",
        "`"
      ],
      [
        "SSS",
        "?"
      ],
      [
        ";",
        "T"
      ],
      [
        ";",
        "v"
      ],
      [
        ";",
        "w"
      ],
      [
        ";",
        "yy"
      ],
      [
        "<",
        "QQQ"
      ],
      [
        "?",
        ";"
      ],
      [
        "?",
        "~~~~~~~"
      ],
      [
        "H",
        "C"
      ],
      [
        "K",
        "oooo"
      ],
      [
        "O",
        "P"
      ],
      [
        "O",
        "zz"
      ],
      [
        "P",
        "aa"
      ],
      [
        "Q",
        "zzzz"
      ],
      [
        "_",
        "~~~~"
      ],
      [
        "_",
        ";;;"
      ],
      [
        "`",
        "O"
      ],
      [
        "a",
        "~~~"
      ],
      [
        "c",
        "~~~~~~~"
      ],
      [
        "d",
        "yyyyyyy"
      ],
      [
        "e",
        "~P"
      ],
      [
        "o",
        "Ko"
      ],
      [
        "p",
        ";"
      ],
      [
        "p",
        "u"
      ],
      [
        "x",
        "__"
      ],
      [
        "y",
        "u"
      ],
      [
        "xx",
        ";~~~~~"
      ],
      [
        "~~~",
        "zz"
      ],
      [
        "aa",
        "\\"
      ],
      [
        "dd",
        "y"
      ],
      [
        "dd",
        ";~~~~~"
      ],
      [
        "~~~~~~~",
        "?"
      ],
      [
        "~~~~~~~",
        "c"
      ],
      [
        "PPPP",
        "PP;"
      ],
      [
        "QQ",
        "<"
      ],
      [
        "zzz",
        "P"
      ],
      [
        "P;",
        "P"
      ],
      [
        "~~~~;",
        "ddd"
      ],
      [
        "cccc",
        "cccc"
      ],
      [
        "cccc",
        "ccc"
      ],
      [
        "eee",
        "P"
      ],
      [
        "P~",
        "e"
      ],
      [
        "ddd",
        ";~~~~"
      ],
      [
        "x_",
        "xxxxxx"
      ],
      [
        "iiii",
        "i"
      ],
      [
        "~~~~~;",
        "xx"
      ],
      [
        "~~~~~;",
        "dd"
      ],
      [
        "wwww",
        "ww"
      ],
      [
        "wwww",
        "wwww"
      ],
      [
        "xxxxxx",
        "_x"
      ],
      [
        "qqqq",
        "qqqq"
      ],
      [
        "yyyyyyy",
        "d"
      ],
      [
        "xxx_",
        "xx"
      ],
      [
        "xxx_",
        "xxxx"
      ],
      [
        "Pa",
        "Pa"
      ],
      [
        "xxxx_",
        "xxx"
      ],
      [
        "llll",
        "ll"
      ],
      [
        ";",
        "q"
      ],
      [
        ";",
        "oo"
      ],
      [
        ";",
        "ssss"
      ],
      [
        "K",
        "p"
      ],
      [
        "K",
        "z"
      ],
      [
        "K",
        "__"
      ],
      [
        "L",
        "~~~~~~~"
      ],
      [
        "O",
        "`"
      ],
      [
        "O",
        "~~~~~"
      ],
      [
        "O",
        "cc"
      ],
      [
        "O",
        "ddd"
      ],
      [
        "P",
        "~~~~~~"
      ],
      [
        "Q",
        ";"
      ],
      [
        "Q",
        "e"
      ],
      [
        "\\",
        "~"
      ],
      [
        "_",
        "xxxxxxx"
      ],
      [
        "`",
        "~"
      ],
      [
        "`",
        "uu"
      ],
      [
        "a",
        "~~~~"
      ],
      [
        "c",
        "d"
      ],
      [
        "o",
        "ee"
      ],
      [
        "q",
        "K"
      ],
      [
        "q",
        "\\"
      ],
      [
        "s",
        "www"
      ],
      [
        "u",
        "y"
      ],
      [
        "x",
        "yyyy"
      ],
      [
        "y",
        "dd"
      ],
      [
        "y",
        "xy"
      ],
      [
        "~",
        "<"
      ],
      [
        "~",
        "S"
      ],
      [
        "~",
        "PP"
      ],
      [
        "~",
        ";~"
      ],
      [
        "~",
        "P~"
      ],
      [
        "~~",
        "zz"
      ],
      [
        "~~~~",
        "z"
      ],
      [
        "zz",
        "P"
      ],
      [
        "PP",
        "<"
      ],
      [
        "PP",
        "QQ"
      ],
      [
        ";;",
        "___"
      ],
      [
        "~~~~~",
        "PPP"
      ],
      [
        "~~~~~",
        "_xx"
      ],
      [
        "OO",
        "d"
      ],
      [
        "~~~~~~~",
        "L"
      ],
      [
        "PPP",
        "~~"
      ],
      [
        "PPP",
        "~~~"
      ],
      [
        "PPP",
        "~~~~~"
      ],
      [
        "QQ",
        "PP"
      ],
      [
        "____",
        ";"
      ],
      [
        "[[",
        ";"
      ],
      [
        "SS",
        "?"
      ],
      [
        ";~",
        "z"
      ],
      [
        "P;",
        "e"
      ],
      [
        "~;",
        "PPPPPP"
      ],
      [
        "??",
        "??"
      ],
      [
        "~~~~;",
        "[[["
      ],
      [
        "x_",
        "xx"
      ],
      [
        "Pe",
        "z"
      ],
      [
        "PPPPPP",
        ";~"
      ],
      [
        "xx_",
        "~~~~~"
      ],
      [
        "xx_",
        "xxxxx"
      ],
      [
        "xxxxxxx",
        "_"
      ],
      [
        "[[[",
        ";~~~~"
      ],
      [
        "xxxxx_",
        "xx"
      ],
      [
        ";",
        "xx"
      ],
      [
        ";",
        "____"
      ],
      [
        ";",
        "[["
      ],
      [
        ";",
        "___"
      ],
      [
        ";",
        "eee"
      ],
      [
        ";",
        "SSSS"
      ],
      [
        ";",
        "xxxxxxx"
      ],
      [
        ";",
        "aaaaaaa"
      ],
      [
        "<",
        "~~~"
      ],
      [
        "?",
        "SS"
      ],
      [
        "?",
        ";?"
      ],
      [
        "K",
        "ss"
      ],
      [
        "L",
        "PP"
      ],
      [
        "O",
        "z"
      ],
      [
        "P",
        "u"
      ],
      [
        "Q",
        "zz"
      ],
      [
        "Q",
        "bbbb"
      ],
      [
        "T",
        "iii"
      ],
      [
        "\\",
        "z"
      ],
      [
        "_",
        "~~~"
      ],
      [
        "_",
        "xxx"
      ],
      [
        "_",
        "x_"
      ],
      [
        "`",
        "~~"
      ],
      [
        "`",
        "~~~~~~~"
      ],
      [
        "`",
        "eee"
      ],
      [
        "`",
        "ppp"
      ],
      [
        "a",
        "vvv"
      ],
      [
        "c",
        ";~~~~~~"
      ],
      [
        "d",
        "yyyy"
      ],
      [
        "d",
        "uuu"
      ],
      [
        "i",
        "O~~~~~~"
      ],
      [
        "k",
        "K"
      ],
      [
        "q",
        "["
      ],
      [
        "t",
        "xxx"
      ],
      [
        "u",
        "zz"
      ],
      [
        "v",
        "\\"
      ],
      [
        "w",
        "O"
      ],
      [
        "w",
        "s"
      ],
      [
        "z",
        "~~~~~~~"
      ],
      [
        "z",
        "ii"
      ],
      [
        "~",
        "c"
      ],
      [
        "~",
        "d"
      ],
      [
        "~",
        "K_"
      ],
      [
        "~~",
        ";;;"
      ],
      [
        "~~",
        "KK"
      ],
      [
        "~~",
        "zP"
      ],
      [
        "~~~~",
        "KK"
      ],
      [
        "zz",
        ";"
      ],
      [
        "zz",
        "v"
      ],
      [
        "zz",
        ";~~~~~"
      ],
      [
        "PP",
        ";;;"
      ],
      [
        ";;",
        "K"
      ],
      [
        "yy",
        "x"
      ],
      [
        "~~~",
        "e"
      ],
      [
        "__",
        "o"
      ],
      [
        "__",
        ";;"
      ],
      [
        "__",
        ";~~~~~"
      ],
      [
        "dd",
        "PP"
      ],
      [
        "ee",
        "PP"
      ],
      [
        "ee",
        "oo"
      ],
      [
        "zzzz",
        "Q"
      ],
      [
        "~~~~~",
        "OOO"
      ],
      [
        "~~~~~",
        "Pz"
      ],
      [
        "~~~~~",
        ";;~"
      ],
      [
        "OO",
        "~~~"
      ],
      [
        "~~~~~~",
        "e~"
      ],
      [
        "~~~~~~",
        "a~"
      ],
      [
        "~~~~~~",
        "Oi"
      ],
      [
        "~~~~~~~",
        "`"
      ],
      [
        "~~~~~~~",
        "z"
      ],
      [
        "ii",
        "z"
      ],
      [
        "PPP",
        ";;"
      ],
      [
        "zzz",
        "e"
      ],
      [
        ";;;;",
        "~~"
      ],
      [
        "[[",
        "[[["
      ],
      [
        "TT",
        "TTT"
      ],
      [
        "yyy",
        "x"
      ],
      [
        "P;",
        "PPPPPP"
      ],
      [
        "~;",
        "~~"
      ],
      [
        "~~;",
        "PPPPP"
      ],
      [
        "~~~~;",
        "ccc"
      ],
      [
        "x_",
        "xxx"
      ],
      [
        "~~~~~;",
        "zz"
      ],
      [
        "~~~~~;",
        "__"
      ],
      [
        "OOO",
        "~~~~~"
      ],
      [
        "~~~~~~;",
        "c"
      ],
      [
        "ccc",
        ";~~~~"
      ],
      [
        "UUUU",
        "UU"
      ],
      [
        "UUUU",
        "UUUU"
      ],
      [
        "UUUU",
        "UUU"
      ],
      [
        "PPPPPP",
        ";P"
      ],
      [
        "QQQ",
        "<"
      ],
      [
        "xx_",
        "xxx"
      ],
      [
        "ffff",
        "f"
      ],
      [
        "xxxxxxx",
        ";"
      ],
      [
        "~;;",
        "~~~~~"
      ],
      [
        "```",
        "P"
      ],
      [
        "[[[[",
        "[[[["
      ],
      [
        "~e",
        "~~~~~~"
      ],
      [
        "aaaaaaa",
        ";"
      ],
      [
        "t;",
        "t;"
      ],
      [
        "PPPPP;",
        "~~"
      ],
      [
        "~a",
        "~~~~~~"
      ],
      [
        ";",
        "k"
      ],
      [
        ";",
        "uu"
      ],
      [
        ";",
        "zzz"
      ],
      [
        ";",
        "dddd"
      ],
      [
        ";",
        "sss"
      ],
      [
        ";",
        "???"
      ],
      [
        "<",
        "P"
      ],
      [
        "<",
        "b"
      ],
      [
        "?",
        "SSS"
      ],
      [
        "K",
        "qq"
      ],
      [
        "K",
        "___"
      ],
      [
        "K",
        "ttt"
      ],
      [
        "L",
        "~~~~~~"
      ],
      [
        "O",
        "yyyy"
      ],
      [
        "O",
        "ww"
      ],
      [
        "O",
        ";;;"
      ],
      [
        "O",
        "dddd"
      ],
      [
        "O",
        "cccc"
      ],
      [
        "P",
        "L"
      ],
      [
        "P",
        "p"
      ],
      [
        "P",
        "eeee"
      ],
      [
        "P",
        "yP"
      ],
      [
        "T",
        ";"
      ],
      [
        "U",
        "jj"
      ],
      [
        "_",
        "c"
      ],
      [
        "_",
        "xx_"
      ],
      [
        "_",
        "ttttttt"
      ],
      [
        "`",
        "d"
      ],
      [
        "`",
        "z"
      ],
      [
        "`",
        "~~~~"
      ],
      [
        "`",
        "~~~~~~"
      ],
      [
        "a",
        "zz"
      ],
      [
        "c",
        "K"
      ],
      [
        "c",
        "~~"
      ],
      [
        "c",
        "OO"
      ],
      [
        "d",
        "c"
      ],
      [
        "e",
        ";;"
      ],
      [
        "e",
        "~~~"
      ],
      [
        "e",
        "zzzzzzz"
      ],
      [
        "f",
        "<"
      ],
      [
        "f",
        "~"
      ],
      [
        "k",
        "["
      ],
      [
        "o",
        "_"
      ],
      [
        "p",
        "o"
      ],
      [
        "p",
        "~"
      ],
      [
        "s",
        "_"
      ],
      [
        "s",
        ";;"
      ],
      [
        "t",
        "x"
      ],
      [
        "t",
        "~"
      ],
      [
        "t",
        "yyyy"
      ],
      [
        "t",
        "K~~~~~~"
      ],
      [
        "u",
        "~"
      ],
      [
        "v",
        "zz"
      ],
      [
        "y",
        "x"
      ],
      [
        "y",
        "tt"
      ],
      [
        "~",
        "["
      ],
      [
        "~",
        "t"
      ],
      [
        "~",
        "PPPP"
      ],
      [
        "~",
        ";;;;"
      ],
      [
        "~",
        "z~"
      ],
      [
        "~",
        "ez"
      ],
      [
        "~~",
        "OO"
      ],
      [
        "~~~~",
        "P"
      ],
      [
        "~~~~",
        "OO"
      ],
      [
        "~~~~",
        "P~"
      ],
      [
        "~~~~",
        ";;;~"
      ],
      [
        "zz",
        "~"
      ],
      [
        "PP",
        "dd"
      ],
      [
        "xx",
        "_x"
      ],
      [
        ";;",
        "OO"
      ],
      [
        "yy",
        ";~~~~~"
      ],
      [
        "~~~",
        "OO"
      ],
      [
        "~~~",
        "KK"
      ],
      [
        "~~~",
        ";;;;"
      ],
      [
        "~~~",
        "Qf"
      ],
      [
        "tt",
        "OO"
      ],
      [
        "__",
        "x"
      ],
      [
        "ee",
        "o"
      ],
      [
        "zzzz",
        "e"
      ],
      [
        "~~~~~",
        "P"
      ],
      [
        "~~~~~",
        "`"
      ],
      [
        "~~~~~",
        ";;"
      ],
      [
        "~~~~~",
        "P~~"
      ],
      [
        "~~~~~",
        "a~~"
      ],
      [
        "OO",
        "~~"
      ],
      [
        "OO",
        "~~~~"
      ],
      [
        "~~~~~~",
        "L"
      ],
      [
        "~~~~~~",
        "P~"
      ],
      [
        "~~~~~~",
        "Pe"
      ],
      [
        "~~~~~~",
        "Kt"
      ],
      [
        "yyyy",
        ";"
      ],
      [
        "yyyy",
        "O"
      ],
      [
        "yyyy",
        "t"
      ],
      [
        "yyyy",
        "x"
      ],
      [
        "tttt",
        ";"
      ],
      [
        "xxx",
        "__"
      ],
      [
        "TT",
        "~"
      ],
      [
        "yyy",
        ";"
      ],
      [
        "P;",
        "~~"
      ],
      [
        "~;",
        "qqqqq"
      ],
      [
        "oooo",
        "eeoo"
      ],
      [
        "bb",
        "<"
      ],
      [
        "~~;",
        "PPP"
      ],
      [
        "cccc",
        "O"
      ],
      [
        "eee",
        ";"
      ],
      [
        "P~",
        "P"
      ],
      [
        "ddd",
        "P"
      ],
      [
        "ddd",
        ";O"
      ],
      [
        "x_",
        "x"
      ],
      [
        "~~~~~;",
        "yy"
      ],
      [
        "wwww",
        "s"
      ],
      [
        "gg",
        "S"
      ],
      [
        "~P",
        "e"
      ],
      [
        "~P",
        "~~~~~~"
      ],
      [
        "~P",
        "zz~~~~"
      ],
      [
        "K_",
        "t"
      ],
      [
        "O;",
        "ddd"
      ],
      [
        "www",
        "O"
      ],
      [
        "Pz",
        "~~"
      ],
      [
        "_K",
        "~~~~"
      ],
      [
        "ze",
        "~"
      ],
      [
        "zzzzzzz",
        "e"
      ],
      [
        "~~P",
        "~~~~~"
      ],
      [
        "bbbb",
        "Q"
      ],
      [
        ";PPPP",
        ";"
      ],
      [
        "[;",
        "["
      ],
      [
        "jjjj",
        "jj"
      ],
      [
        "eP",
        "~~~~~~"
      ],
      [
        "o`e",
        "o`eoo"
      ],
      [
        "yP",
        "yP"
      ],
      [
        "fQ",
        "~~~"
      ],
      [
        "~;;;",
        "~~~~"
      ],
      [
        "ttttttt",
        "_"
      ],
      [
        "~~a",
        "~~~~~"
      ],
      [
        "~~~~zz",
        "P~"
      ],
      [
        "ooee",
        "oooo"
      ],
      [
        "ooe`o",
        "e`o"
      ],
      [
        ";",
        "S"
      ],
      [
        ";",
        "f"
      ],
      [
        ";",
        "u"
      ],
      [
        ";",
        "SS"
      ],
      [
        ";",
        "PPPPP;;"
      ],
      [
        "<",
        "Q"
      ],
      [
        "<",
        "~~~~~~~"
      ],
      [
        "@",
        ";"
      ],
      [
        "K",
        "ooo"
      ],
      [
        "K",
        "_______"
      ],
      [
        "L",
        "~~~"
      ],
      [
        "L",
        "vv"
      ],
      [
        "O",
        "__"
      ],
      [
        "O",
        "ss"
      ],
      [
        "O",
        "____"
      ],
      [
        "O",
        "TTT"
      ],
      [
        "P",
        ";;;;"
      ],
      [
        "P",
        "OPP"
      ],
      [
        "Q",
        "ee"
      ],
      [
        "Q",
        "bbbQ"
      ],
      [
        "\\",
        "uu"
      ],
      [
        "\\",
        "pp"
      ],
      [
        "\\",
        "rrrrr"
      ],
      [
        "_",
        "~~~~~"
      ],
      [
        "_",
        "xxxx"
      ],
      [
        "_",
        "ttt"
      ],
      [
        "_",
        ";O"
      ],
      [
        "a",
        "v"
      ],
      [
        "a",
        ";~~~~~~"
      ],
      [
        "a",
        "ze"
      ],
      [
        "a",
        "Pa"
      ],
      [
        "d",
        "~~~"
      ],
      [
        "e",
        "PP"
      ],
      [
        "e",
        "P~"
      ],
      [
        "f",
        "_x"
      ],
      [
        "h",
        "h"
      ],
      [
        "j",
        "Uj"
      ],
      [
        "l",
        "q"
      ],
      [
        "o",
        "to"
      ],
      [
        "q",
        "l"
      ],
      [
        "q",
        "vv"
      ],
      [
        "s",
        "~~~~~~~"
      ],
      [
        "t",
        "K"
      ],
      [
        "u",
        "z"
      ],
      [
        "u",
        "yy"
      ],
      [
        "v",
        ";"
      ],
      [
        "w",
        "ss"
      ],
      [
        "x",
        "yy"
      ],
      [
        "y",
        "z"
      ],
      [
        "y",
        ";~"
      ],
      [
        "z",
        "K"
      ],
      [
        "z",
        "O"
      ],
      [
        "z",
        "`"
      ],
      [
        "z",
        "~;"
      ],
      [
        "z",
        "P~"
      ],
      [
        "z",
        ";P"
      ],
      [
        "~",
        "?"
      ],
      [
        "~",
        "TT"
      ],
      [
        "~",
        "zzzzzzz"
      ],
      [
        "~~",
        ";~"
      ],
      [
        "~~",
        "P~"
      ],
      [
        "~~",
        "Qf"
      ],
      [
        "zz",
        "O"
      ],
      [
        "PP",
        "L"
      ],
      [
        "xx",
        ";;"
      ],
      [
        ";;",
        "PPPPPP"
      ],
      [
        ";;",
        "PPPPP;"
      ],
      [
        "~~~",
        "L"
      ],
      [
        "~~~",
        "T"
      ],
      [
        "tt",
        "y"
      ],
      [
        "aa",
        ";"
      ],
      [
        "__",
        "O"
      ],
      [
        "__",
        "~~~~~~"
      ],
      [
        "__",
        "xxx"
      ],
      [
        "__",
        "tttttt"
      ],
      [
        "dd",
        "yy"
      ],
      [
        "dd",
        "yyyyyy"
      ],
      [
        "uu",
        "P"
      ],
      [
        "~~~~~",
        "<"
      ],
      [
        "~~~~~",
        "_"
      ],
      [
        "OO",
        ";;"
      ],
      [
        "OO",
        "TT"
      ],
      [
        "~~~~~~",
        "__"
      ],
      [
        "~~~~~~",
        "O;"
      ],
      [
        "~~~~~~",
        "\\a"
      ],
      [
        "xxxx",
        ";~~~"
      ],
      [
        "~~~~~~~",
        "<"
      ],
      [
        "~~~~~~~",
        "s"
      ],
      [
        ";;;",
        "K"
      ],
      [
        ";;;",
        "O"
      ],
      [
        "PPP",
        "~~~~"
      ],
      [
        "PPP",
        ";~~"
      ],
      [
        "QQ",
        ";"
      ],
      [
        "KK",
        "~~"
      ],
      [
        "KK",
        "~~~~"
      ],
      [
        "KK",
        "ttt"
      ],
      [
        "zzz",
        "~~"
      ],
      [
        "xxx",
        ";~~~~"
      ],
      [
        "xxx",
        "yyyyy"
      ],
      [
        "TT",
        "O"
      ],
      [
        "~;",
        "K"
      ],
      [
        "~;",
        "aaaaaa"
      ],
      [
        "~~;",
        "aaaaa"
      ],
      [
        "~~~~;",
        "xxx"
      ],
      [
        "ttt",
        "_"
      ],
      [
        "ttt",
        "_;"
      ],
      [
        "~~~;",
        "xxxx"
      ],
      [
        "x_",
        "f"
      ],
      [
        "x_",
        "xxxx"
      ],
      [
        "gg",
        "g"
      ],
      [
        "uuu",
        "d"
      ],
      [
        "~~~~~~;",
        "a"
      ],
      [
        "yyyyy",
        "xxx"
      ],
      [
        "~P",
        "z"
      ],
      [
        "O;",
        "_"
      ],
      [
        "OOOO",
        "OOO"
      ],
      [
        "OOOO",
        "OOOO"
      ],
      [
        "vvv",
        ";"
      ],
      [
        "vvv",
        "a"
      ],
      [
        "PP;",
        "PPPPP"
      ],
      [
        "ssss",
        "ssss"
      ],
      [
        "qqqq",
        "qq"
      ],
      [
        ";O",
        "~~~~~~"
      ],
      [
        "PPPPPP",
        ";;"
      ],
      [
        "ze",
        "P"
      ],
      [
        "ze",
        "~P"
      ],
      [
        "yyyyyy",
        "dd"
      ],
      [
        "tttttt",
        "__"
      ],
      [
        "zzzzzzz",
        "~"
      ],
      [
        "rrrr",
        "rr"
      ],
      [
        "ffff",
        "ffff"
      ],
      [
        "SSSS",
        "S?"
      ],
      [
        "TTT",
        "O"
      ],
      [
        "aaaaaa",
        ";~"
      ],
      [
        "bbbb",
        "bb"
      ],
      [
        "K~~",
        "K"
      ],
      [
        "aaaaa",
        ";~~"
      ],
      [
        "Ko",
        "K"
      ],
      [
        "gggg",
        "gggg"
      ],
      [
        "TTTT",
        "TTTT"
      ],
      [
        "PPPPP;",
        "PP"
      ],
      [
        "La",
        "L"
      ],
      [
        "fQ",
        "~~"
      ],
      [
        "_______",
        "K"
      ],
      [
        "u;",
        "uuu"
      ],
      [
        "luK",
        "luK"
      ],
      [
        "Kul",
        "Kul"
      ],
      [
        "a\\",
        "~~~~~~"
      ],
      [
        "uuu;",
        "u"
      ],
      [
        ";",
        "`"
      ],
      [
        ";",
        "aa"
      ],
      [
        ";",
        "aaaa"
      ],
      [
        ";",
        "``"
      ],
      [
        ";",
        "KK"
      ],
      [
        ";",
        "~~;"
      ],
      [
        ";",
        "~~~;"
      ],
      [
        ";",
        "aaa"
      ],
      [
        ";",
        "vvv"
      ],
      [
        ";",
        "QQQ"
      ],
      [
        ";",
        "d;"
      ],
      [
        ";",
        "vvvvvv"
      ],
      [
        ";",
        "_______"
      ],
      [
        ";",
        "CCC"
      ],
      [
        "<",
        "PPP"
      ],
      [
        "?",
        "~~"
      ],
      [
        "?",
        "~~~"
      ],
      [
        "@",
        "U"
      ],
      [
        "@",
        "PPPP"
      ],
      [
        "C",
        "HC"
      ],
      [
        "K",
        "l"
      ],
      [
        "K",
        ";~"
      ],
      [
        "K",
        "ssss"
      ],
      [
        "K",
        "xxxxxxx"
      ],
      [
        "L",
        "~"
      ],
      [
        "O",
        "s"
      ],
      [
        "O",
        ";~~~~~~"
      ],
      [
        "O",
        "yyyyyyy"
      ],
      [
        "P",
        "<"
      ],
      [
        "P",
        "LL"
      ],
      [
        "P",
        "````"
      ],
      [
        "P",
        "```"
      ],
      [
        "Q",
        ";;"
      ],
      [
        "S",
        "g"
      ],
      [
        "T",
        "y"
      ],
      [
        "T",
        "~~~"
      ],
      [
        "T",
        "~~~~~"
      ],
      [
        "T",
        "~~~~~~~"
      ],
      [
        "T",
        "ii"
      ],
      [
        "T",
        "P~"
      ],
      [
        "T",
        "iiii"
      ],
      [
        "[",
        "u"
      ],
      [
        "[",
        "kk"
      ],
      [
        "[",
        "ppp"
      ],
      [
        "\\",
        "u"
      ],
      [
        "\\",
        "~~~~"
      ],
      [
        "\\",
        "uuu"
      ],
      [
        "\\",
        "zzzzz"
      ],
      [
        "_",
        "xxxxx_"
      ],
      [
        "a",
        "~~~~~"
      ],
      [
        "a",
        "~~~~~~~"
      ],
      [
        "a",
        ";;;"
      ],
      [
        "a",
        ";~~"
      ],
      [
        "c",
        "xxx"
      ],
      [
        "d",
        "P"
      ],
      [
        "d",
        "~~~~"
      ],
      [
        "d",
        "~~~~~~~"
      ],
      [
        "d",
        "OOO"
      ],
      [
        "d",
        "yyyyy"
      ],
      [
        "e",
        "zzzz"
      ],
      [
        "e",
        ";;;"
      ],
      [
        "e",
        "~;"
      ],
      [
        "e",
        ";P"
      ],
      [
        "e",
        "Pzz"
      ],
      [
        "f",
        ";"
      ],
      [
        "j",
        "U"
      ],
      [
        "k",
        "p"
      ],
      [
        "l",
        ";"
      ],
      [
        "o",
        "t"
      ],
      [
        "p",
        "K"
      ],
      [
        "p",
        "k"
      ],
      [
        "q",
        "k"
      ],
      [
        "q",
        "kk"
      ],
      [
        "s",
        "K"
      ],
      [
        "s",
        "x"
      ],
      [
        "t",
        ";;"
      ],
      [
        "t",
        "~~~~~~~"
      ],
      [
        "t",
        ";~~~~~~"
      ],
      [
        "t",
        "_K"
      ],
      [
        "w",
        ";"
      ],
      [
        "x",
        "c"
      ],
      [
        "x",
        "s"
      ],
      [
        "y",
        "t"
      ],
      [
        "y",
        "w"
      ],
      [
        "y",
        "xx"
      ],
      [
        "y",
        "~~~~~"
      ],
      [
        "y",
        "dO"
      ],
      [
        "y",
        "Od"
      ],
      [
        "z",
        "o"
      ],
      [
        "z",
        "u"
      ],
      [
        "z",
        "aa"
      ],
      [
        "z",
        "Pzz"
      ],
      [
        "~",
        "L"
      ],
      [
        "~~",
        "t"
      ],
      [
        "~~",
        "aa"
      ],
      [
        "~~",
        "ee"
      ],
      [
        "~~",
        "PPPP"
      ],
      [
        "~~",
        "PPP"
      ],
      [
        "~~",
        "zzz"
      ],
      [
        "~~",
        "Pz"
      ],
      [
        "~~",
        "Pe"
      ],
      [
        "~~",
        "ze"
      ],
      [
        "~~",
        "zzzzzz"
      ],
      [
        "~~",
        "Pzz"
      ],
      [
        "~~~~",
        "xxxx"
      ],
      [
        "~~~~",
        ";;;"
      ],
      [
        "~~~~",
        "Pe"
      ],
      [
        "~~~~",
        ";;;P"
      ],
      [
        "~~~~",
        "a~~~"
      ],
      [
        "zz",
        "Q"
      ],
      [
        "zz",
        "~~~~~~"
      ],
      [
        "PP",
        "O"
      ],
      [
        "PP",
        "e"
      ],
      [
        "xx",
        "c"
      ],
      [
        ";;",
        "e"
      ],
      [
        ";;",
        "__"
      ],
      [
        ";;",
        "kk"
      ],
      [
        "yy",
        "u"
      ],
      [
        "~~~",
        "\\"
      ],
      [
        "~~~",
        "Pzz"
      ],
      [
        "~~~",
        "_t"
      ],
      [
        "~~~",
        "a~~~~"
      ],
      [
        "tt",
        "O"
      ],
      [
        "tt",
        "o"
      ],
      [
        "__",
        "tttt"
      ],
      [
        "__",
        "K~~~~~"
      ],
      [
        "ee",
        "P"
      ],
      [
        "ee",
        "`"
      ],
      [
        "ee",
        "zzzzzz"
      ],
      [
        "ee",
        "P~~~~~"
      ],
      [
        "zzzz",
        "P~"
      ],
      [
        "uu",
        "`"
      ],
      [
        "uu",
        "p"
      ],
      [
        "vv",
        "q"
      ],
      [
        "~~~~~",
        ";;P"
      ],
      [
        "~~~~~",
        "Pee"
      ],
      [
        "OO",
        "zzz"
      ],
      [
        "~~~~~~",
        "P"
      ],
      [
        "~~~~~~",
        "zz"
      ],
      [
        "~~~~~~",
        "K~"
      ],
      [
        "~~~~~~",
        "Oc"
      ],
      [
        "xxxx",
        "~~~~"
      ],
      [
        "~~~~~~~",
        "T"
      ],
      [
        "~~~~~~~",
        "a"
      ],
      [
        "~~~~~~~",
        "d"
      ],
      [
        "~~~~~~~",
        "t"
      ],
      [
        "cc",
        ";"
      ],
      [
        "ss",
        ";;"
      ],
      [
        "yyyy",
        "_"
      ],
      [
        "pp",
        "o"
      ],
      [
        ";;;",
        "d"
      ],
      [
        ";;;",
        "PP"
      ],
      [
        ";;;",
        "PPP"
      ],
      [
        "tttt",
        "__"
      ],
      [
        "aaaa",
        ";~~~"
      ],
      [
        "qq",
        "K"
      ],
      [
        "PPP",
        "ee"
      ],
      [
        "PPP",
        ";;;"
      ],
      [
        "PPP",
        ";;;;"
      ],
      [
        "``",
        ";"
      ],
      [
        "KK",
        ";"
      ],
      [
        "zzz",
        ";"
      ],
      [
        "zzz",
        ";~~~~"
      ],
      [
        "xxx",
        "c"
      ],
      [
        "dddd",
        "O"
      ],
      [
        "dddd",
        "dO"
      ],
      [
        ";~",
        "e"
      ],
      [
        ";~",
        ";P"
      ],
      [
        "yyy",
        "dd"
      ],
      [
        "P;",
        "z"
      ],
      [
        "P;",
        "~~~~~"
      ],
      [
        "~;",
        "P"
      ],
      [
        "~;",
        "P;"
      ],
      [
        "oooo",
        "ooo"
      ],
      [
        "~~;",
        "a"
      ],
      [
        "??",
        "S"
      ],
      [
        "~~~~;",
        "zzz"
      ],
      [
        "~~~~;",
        "eee"
      ],
      [
        "~~~~;",
        "QQQ"
      ],
      [
        "~~~~;",
        "o`e"
      ],
      [
        "cccc",
        "cO"
      ],
      [
        "eee",
        ";~~~~"
      ],
      [
        "ddd",
        "yyyyy"
      ],
      [
        "~~~;",
        "aaaa"
      ],
      [
        "wwww",
        "wwws"
      ],
      [
        "sss",
        "K"
      ],
      [
        "~~~~~~;",
        "O"
      ],
      [
        "~~~~~~;",
        "t"
      ],
      [
        "zzzzz",
        "P~~"
      ],
      [
        "yyyyy",
        "d"
      ],
      [
        "yyyyy",
        "ddd"
      ],
      [
        "~P",
        "~~~~"
      ],
      [
        ";P",
        ";~"
      ],
      [
        "ssss",
        ";"
      ],
      [
        "_K",
        "~"
      ],
      [
        "QQQ",
        ";"
      ],
      [
        "QQQ",
        ";~~~~"
      ],
      [
        "K;",
        "K"
      ],
      [
        "zzzzzz",
        "~~"
      ],
      [
        "zzzzzz",
        "ee"
      ],
      [
        "Pzz",
        "e"
      ],
      [
        "SSSS",
        "SS"
      ],
      [
        "ez",
        "~~~~"
      ],
      [
        ";_",
        "ttt"
      ],
      [
        "~~P",
        "zzzzz"
      ],
      [
        "xxxxxxx",
        "K"
      ],
      [
        "P;;",
        "~~~~~"
      ],
      [
        ";PPPP",
        "P;"
      ],
      [
        "t_",
        "~~~"
      ],
      [
        "yyyyyyy",
        "O"
      ],
      [
        "eP",
        "~~~~"
      ],
      [
        "__;",
        "d"
      ],
      [
        "cO",
        "~~~~~~"
      ],
      [
        "~~~P",
        "ee"
      ],
      [
        "ddO",
        "dd"
      ],
      [
        "uK",
        "luKluK"
      ],
      [
        "~K",
        "~~~~~~"
      ],
      [
        "bQ",
        "b"
      ],
      [
        "c;",
        "cc"
      ],
      [
        "`p",
        "`p"
      ],
      [
        "KKKK",
        "KK"
      ],
      [
        "_______",
        ";"
      ],
      [
        "e`o",
        ";~~~~"
      ],
      [
        "swwww",
        "www"
      ],
      [
        "xxx;",
        "xx"
      ],
      [
        "sw",
        "s"
      ],
      [
        "~~~~~K",
        "__"
      ],
      [
        "rrrrr",
        "\\"
      ],
      [
        "~~~f",
        "~~~"
      ],
      [
        "d~",
        "d"
      ],
      [
        "P;;;",
        "~~~~"
      ],
      [
        "ct",
        "ct"
      ],
      [
        "ooe`o",
        "eeo"
      ],
      [
        "oee",
        "o`eoo"
      ],
      [
        "KulKul",
        "Ku"
      ],
      [
        ";",
        "@"
      ],
      [
        ";",
        "o"
      ],
      [
        ";",
        "dd"
      ],
      [
        ";",
        "ii"
      ],
      [
        ";",
        "eeee"
      ],
      [
        ";",
        "P~"
      ],
      [
        ";",
        "OOOO"
      ],
      [
        ";",
        "_K"
      ],
      [
        ";",
        "rrrr"
      ],
      [
        ";",
        "x;"
      ],
      [
        ";",
        "sssss"
      ],
      [
        ";",
        "uu;"
      ],
      [
        ";",
        "kkkk"
      ],
      [
        "<",
        "f"
      ],
      [
        "<",
        "~"
      ],
      [
        "<",
        "PP"
      ],
      [
        "<",
        "QQ"
      ],
      [
        "<",
        "QQ<"
      ],
      [
        "?",
        "g"
      ],
      [
        "?",
        "ccc"
      ],
      [
        "@",
        "~"
      ],
      [
        "K",
        "y"
      ],
      [
        "K",
        "xxx"
      ],
      [
        "K",
        "ppp"
      ],
      [
        "L",
        "vvv"
      ],
      [
        "O",
        "xx"
      ],
      [
        "O",
        "tt"
      ],
      [
        "O",
        "ii"
      ],
      [
        "O",
        "iiii"
      ],
      [
        "O",
        ";~~~"
      ],
      [
        "O",
        "sss"
      ],
      [
        "O",
        "t_"
      ],
      [
        "P",
        "uu"
      ],
      [
        "P",
        "aaaa"
      ],
      [
        "P",
        "ff"
      ],
      [
        "P",
        "zzzzzzz"
      ],
      [
        "P",
        "aaaaaaa"
      ],
      [
        "Q",
        "<"
      ],
      [
        "Q",
        "_"
      ],
      [
        "Q",
        "~~~"
      ],
      [
        "Q",
        "~~~~~~~"
      ],
      [
        "Q",
        "zzzzzz"
      ],
      [
        "Q",
        "zzzzzzz"
      ],
      [
        "S",
        "~~"
      ],
      [
        "S",
        "ww"
      ],
      [
        "T",
        "~~"
      ],
      [
        "T",
        "zz"
      ],
      [
        "T",
        "yyyyy"
      ],
      [
        "[",
        "k"
      ],
      [
        "\\",
        ";;"
      ],
      [
        "_",
        "yy"
      ],
      [
        "_",
        "yyy"
      ],
      [
        "`",
        "PP"
      ],
      [
        "`",
        "K~~~~~~"
      ],
      [
        "a",
        "vvvvvvv"
      ],
      [
        "c",
        "z"
      ],
      [
        "c",
        "__"
      ],
      [
        "c",
        "xxxx"
      ],
      [
        "c",
        "~P"
      ],
      [
        "c",
        "xO"
      ],
      [
        "c",
        "Kc"
      ],
      [
        "d",
        "`"
      ],
      [
        "d",
        ";;"
      ],
      [
        "d",
        "O;"
      ],
      [
        "d",
        ";O"
      ],
      [
        "d",
        "O~"
      ],
      [
        "e",
        "``"
      ],
      [
        "e",
        ";~~~~~~"
      ],
      [
        "e",
        "P;;"
      ],
      [
        "f",
        "z"
      ],
      [
        "f",
        "~~"
      ],
      [
        "i",
        "z"
      ],
      [
        "i",
        "~"
      ],
      [
        "j",
        "QbbbQ"
      ],
      [
        "l",
        "K"
      ],
      [
        "o",
        "K~~~~~~"
      ],
      [
        "p",
        "~~~~~~~"
      ],
      [
        "p",
        ";~~~~~~"
      ],
      [
        "q",
        "~~~~~~"
      ],
      [
        "s",
        "P;"
      ],
      [
        "s",
        "wws"
      ],
      [
        "t",
        "O"
      ],
      [
        "t",
        "["
      ],
      [
        "t",
        "c"
      ],
      [
        "t",
        "~~"
      ],
      [
        "t",
        "yy"
      ],
      [
        "t",
        "yyy"
      ],
      [
        "t",
        "___"
      ],
      [
        "u",
        "["
      ],
      [
        "u",
        "l"
      ],
      [
        "u",
        "zzzz"
      ],
      [
        "u",
        ";~~~~~~"
      ],
      [
        "v",
        "a"
      ],
      [
        "x",
        ";;"
      ],
      [
        "x",
        "~~~~~~~"
      ],
      [
        "x",
        ";;;"
      ],
      [
        "y",
        "zz"
      ],
      [
        "y",
        "uuu"
      ],
      [
        "y",
        "ddddddd"
      ],
      [
        "z",
        "f"
      ],
      [
        "z",
        "y"
      ],
      [
        "z",
        "PP"
      ],
      [
        "z",
        "uu"
      ],
      [
        "z",
        "~~~~~"
      ],
      [
        "z",
        "eee"
      ],
      [
        "~",
        "\\"
      ],
      [
        "~",
        "i"
      ],
      [
        "~",
        "p"
      ],
      [
        "~",
        "pp"
      ],
      [
        "~",
        "zzz"
      ],
      [
        "~",
        "\\qqqqq"
      ],
      [
        "~",
        "PPP~~~~"
      ],
      [
        "~~",
        "T"
      ],
      [
        "~~",
        "c"
      ],
      [
        "~~",
        "P~~"
      ],
      [
        "~~",
        "OOOOOO"
      ],
      [
        "~~~~",
        "\\"
      ],
      [
        "~~~~",
        ";~"
      ],
      [
        "~~~~",
        "_x"
      ],
      [
        "~~~~",
        "dy"
      ],
      [
        "~~~~",
        "Peee"
      ],
      [
        "~~~~",
        "PPP~"
      ],
      [
        "~~~~",
        "e~~~"
      ],
      [
        "zz",
        "u"
      ],
      [
        "zz",
        ";;;"
      ],
      [
        "zz",
        "Pz"
      ],
      [
        "zz",
        "Tyyyyy"
      ],
      [
        "PP",
        "z"
      ],
      [
        "PP",
        "LL"
      ],
      [
        "PP",
        "ez"
      ],
      [
        "PP",
        "OP"
      ],
      [
        "xx",
        "O"
      ],
      [
        "xx",
        "tt"
      ],
      [
        "xx",
        "KK"
      ],
      [
        ";;",
        "d"
      ],
      [
        ";;",
        "zz"
      ],
      [
        ";;",
        "xx"
      ],
      [
        ";;",
        "oo"
      ],
      [
        ";;",
        "xxxx"
      ],
      [
        ";;",
        "ss"
      ],
      [
        ";;",
        "~;"
      ],
      [
        ";;",
        "sss"
      ],
      [
        ";;",
        "xxxxxx"
      ],
      [
        ";;",
        "[[["
      ],
      [
        "yy",
        "_"
      ],
      [
        "yy",
        "t"
      ],
      [
        "yy",
        "dd"
      ],
      [
        "yy",
        "xxxx"
      ],
      [
        "yy",
        ";~~~"
      ],
      [
        "yy",
        "xxxxxx"
      ],
      [
        "~~~",
        "P~"
      ],
      [
        "~~~",
        "PPPPP"
      ],
      [
        "~~~",
        ";;PPP"
      ],
      [
        "tt",
        "oo"
      ],
      [
        "tt",
        "xxx"
      ],
      [
        "aa",
        "P"
      ],
      [
        "aa",
        "zz"
      ],
      [
        "aa",
        ";~~~~~"
      ],
      [
        "__",
        "tt"
      ],
      [
        "__",
        "oo"
      ],
      [
        "__",
        "xxxx"
      ],
      [
        "__",
        "KK"
      ],
      [
        "dd",
        "~~"
      ],
      [
        "ee",
        "~~"
      ],
      [
        "ee",
        ";~~~~~"
      ],
      [
        "zzzz",
        "eeee"
      ],
      [
        "vv",
        "L"
      ],
      [
        "~~~~~",
        "O;"
      ],
      [
        "~~~~~",
        "ooo"
      ],
      [
        "~~~~~",
        "af"
      ],
      [
        "OO",
        "c"
      ],
      [
        "OO",
        "tt"
      ],
      [
        "OO",
        "ii"
      ],
      [
        "OO",
        "TTT"
      ],
      [
        "~~~~~~",
        "q"
      ],
      [
        "~~~~~~",
        "``"
      ],
      [
        "~~~~~~",
        "K;"
      ],
      [
        "~~~~~~",
        "z~"
      ],
      [
        "~~~~~~",
        "Od"
      ],
      [
        "~~~~~~",
        "Ko"
      ],
      [
        "~~~~~~",
        "K`"
      ],
      [
        "xxxx",
        ";;"
      ],
      [
        "~~~~~~~",
        "Q"
      ],
      [
        "~~~~~~~",
        "p"
      ],
      [
        "~~~~~~~",
        "x"
      ],
      [
        "cc",
        "z"
      ],
      [
        "cc",
        ";c"
      ],
      [
        "PPPP",
        "~"
      ],
      [
        "PPPP",
        ";PPP"
      ],
      [
        "ss",
        "x"
      ],
      [
        "ss",
        ";;;"
      ],
      [
        "ss",
        ";~~~~~"
      ],
      [
        "yyyy",
        "d"
      ],
      [
        "yyyy",
        "dddd"
      ],
      [
        "pp",
        "\\"
      ],
      [
        "pp",
        "_"
      ],
      [
        ";;;",
        "~~~~"
      ],
      [
        ";;;",
        "zz"
      ],
      [
        ";;;",
        "[["
      ],
      [
        "tttt",
        "___;"
      ],
      [
        "aaaa",
        "K"
      ],
      [
        "qq",
        "k;"
      ],
      [
        "PPP",
        ";;PPP"
      ],
      [
        "PPP",
        ";;~~~"
      ],
      [
        "``",
        "e"
      ],
      [
        "``",
        "~~~~~~"
      ],
      [
        "____",
        "_;"
      ],
      [
        "zzz",
        "~"
      ],
      [
        "zzz",
        "OO"
      ],
      [
        "zzz",
        "fff"
      ],
      [
        ";;;;",
        "_"
      ],
      [
        "UU",
        "jj"
      ],
      [
        "xxx",
        "yyy"
      ],
      [
        "xxx",
        "_x"
      ],
      [
        "dddd",
        "yyyy"
      ],
      [
        ";~",
        ";~"
      ],
      [
        "eeee",
        ";"
      ],
      [
        "eeee",
        "zzzz"
      ],
      [
        "yyy",
        "O"
      ],
      [
        "yyy",
        "_"
      ],
      [
        "yyy",
        "t"
      ],
      [
        "vvvv",
        "\\vv"
      ],
      [
        "~;",
        "y"
      ],
      [
        "jj",
        "UUU"
      ],
      [
        "kk",
        "zz"
      ],
      [
        "~~;",
        "qq"
      ],
      [
        "~~;",
        "zzzzz"
      ],
      [
        "~~;",
        "uuuuu"
      ],
      [
        "~~;",
        "xx;xx"
      ],
      [
        "??",
        ";"
      ],
      [
        "~~~~;",
        "__"
      ],
      [
        "~~~~;",
        "sss"
      ],
      [
        "~~~~;",
        "aaa"
      ],
      [
        "~~~~;",
        "PP;"
      ],
      [
        "cccc",
        "c;"
      ],
      [
        "___",
        "t"
      ],
      [
        "___",
        ";;"
      ],
      [
        "___",
        ";;___"
      ],
      [
        "eee",
        "`"
      ],
      [
        "eee",
        "P~~~~"
      ],
      [
        "P~",
        "z"
      ],
      [
        "~~~;",
        "O"
      ],
      [
        "~~~;",
        "yy"
      ],
      [
        "x_",
        "x;"
      ],
      [
        "x_",
        "xxxxx_"
      ],
      [
        "iiii",
        "iiiT"
      ],
      [
        "~~~~~;",
        "aa"
      ],
      [
        "~~~~~;",
        "ee"
      ],
      [
        "~~~~~;",
        "ss"
      ],
      [
        "OOO",
        ";"
      ],
      [
        "OOO",
        "y"
      ],
      [
        "ppp",
        "[["
      ],
      [
        ";~~~",
        "\\p"
      ],
      [
        "sss",
        "w"
      ],
      [
        "sss",
        ";~~~~"
      ],
      [
        "~~~~~~;",
        "e"
      ],
      [
        "~~~~~~;",
        "p"
      ],
      [
        "~~~~~~;",
        "u"
      ],
      [
        "zzzzz",
        ";~~"
      ],
      [
        "yyyyy",
        ";"
      ],
      [
        "yyyyy",
        "Tzz"
      ],
      [
        "aaa",
        ";~~~~"
      ],
      [
        "~P",
        "eee"
      ],
      [
        "xxxxxx",
        ";;"
      ],
      [
        "xxxxxx",
        "yy"
      ],
      [
        "xxxxxx",
        "_~"
      ],
      [
        "OOOO",
        ";"
      ],
      [
        "P~~",
        "P"
      ],
      [
        "www",
        ";"
      ],
      [
        "Pz",
        "Paaa"
      ],
      [
        "PPPPP",
        "~~~"
      ],
      [
        "LL",
        "PP"
      ],
      [
        "LL",
        "LL"
      ],
      [
        "xxxxx",
        "K"
      ],
      [
        "UUUU",
        "PPP;"
      ],
      [
        "Pe",
        "PP"
      ],
      [
        "_K",
        "~~~~K_"
      ],
      [
        "ooo",
        "K"
      ],
      [
        "ooo",
        "_"
      ],
      [
        "ooo",
        "~~~~~"
      ],
      [
        "ttttt",
        "_~~"
      ],
      [
        "ze",
        "~~"
      ],
      [
        "ze",
        "PP"
      ],
      [
        "PPP;",
        "PPPP"
      ],
      [
        "_;",
        "d"
      ],
      [
        "yyyyyy",
        "O~"
      ],
      [
        "~O",
        "d"
      ],
      [
        "~O",
        "yyyyyy"
      ],
      [
        "tttttt",
        ";"
      ],
      [
        "zzzzzzz",
        "P"
      ],
      [
        "zzzzzzz",
        "Q"
      ],
      [
        "dO",
        "y"
      ],
      [
        "dO",
        "~~~"
      ],
      [
        "dO",
        "~~~~~~"
      ],
      [
        "ffff",
        "fff"
      ],
      [
        ";K",
        "~~~~~~"
      ],
      [
        "ez",
        "a"
      ],
      [
        "ez",
        "~~"
      ],
      [
        "XX",
        "XX"
      ],
      [
        "[[[",
        ";;"
      ],
      [
        "CC",
        "CC"
      ],
      [
        "Od",
        "y"
      ],
      [
        "~z",
        "~~~~~~"
      ],
      [
        "~z",
        "P~~~~~"
      ],
      [
        "fff",
        "zzz"
      ],
      [
        "bbbb",
        "bbbb"
      ],
      [
        ";PP",
        ";~~~~"
      ],
      [
        ";PPP",
        "UUUU"
      ],
      [
        "dy",
        "d"
      ],
      [
        "QQQQ",
        "QQQQ"
      ],
      [
        "~;;",
        "PP"
      ],
      [
        "SSS",
        ";"
      ],
      [
        "uuuuu",
        ";~~"
      ],
      [
        "~~~O",
        "yyyd"
      ],
      [
        "yd",
        "~~~~"
      ],
      [
        "kkk",
        "u"
      ],
      [
        "gggg",
        "g"
      ],
      [
        "aaaaaaa",
        "P"
      ],
      [
        "UUU",
        "jj"
      ],
      [
        "TTTT",
        "TT"
      ],
      [
        "@@@@",
        "@@"
      ],
      [
        "ezz",
        "P"
      ],
      [
        "~_",
        "xxxxxx"
      ],
      [
        "YY",
        "YY"
      ],
      [
        "~a",
        "~~~~~"
      ],
      [
        "~~_",
        "ttttt"
      ],
      [
        "HH",
        "HH"
      ],
      [
        "~~~f",
        "~~~~"
      ],
      [
        "vv\\",
        "vvvv"
      ],
      [
        "OOOOOO",
        "~~"
      ],
      [
        "dyyy",
        "dd"
      ],
      [
        "dyyy",
        "O~~~"
      ],
      [
        "p_",
        "~~~~"
      ],
      [
        "ddddddd",
        "y"
      ],
      [
        "p\\",
        "~~~;"
      ],
      [
        "vvvvvvv",
        "a"
      ],
      [
        "CCC",
        ";"
      ],
      [
        "?~",
        "?~"
      ],
      [
        "\\qqqqq",
        ";~"
      ],
      [
        "\\qqqqq",
        "\\~"
      ],
      [
        "c~",
        "P~"
      ],
      [
        "~~~~f",
        "~~~"
      ],
      [
        "`ee",
        "`"
      ],
      [
        "~~~~O",
        "zii"
      ],
      [
        "xx;xx",
        ";~~"
      ],
      [
        "?SSSS",
        "S"
      ],
      [
        "xyyy",
        "x"
      ],
      [
        "~~;;;;",
        "~~"
      ],
      [
        "jjU",
        "jj"
      ],
      [
        ";___",
        "tttt"
      ],
      [
        "<~~~",
        "<"
      ],
      [
        "~~~e",
        "~~~~"
      ],
      [
        "~~~~~Pz",
        "~"
      ],
      [
        "iiz",
        "O~~~~"
      ],
      [
        "~~~KK",
        "~~~"
      ],
      [
        "~;qqqqq",
        "\\"
      ],
      [
        ";vvvvvv",
        ";"
      ],
      [
        "Tiiii",
        "iii"
      ],
      [
        "[ppp",
        "["
      ],
      [
        "_xxxxx_",
        "x"
      ],
      [
        "y~~~~~",
        "y"
      ],
      [
        "~\\qqqqq",
        "\\"
      ],
      [
        ";",
        "\\"
      ],
      [
        ";",
        "l"
      ],
      [
        ";",
        "tttt"
      ],
      [
        ";",
        "QQ"
      ],
      [
        ";",
        "xxx"
      ],
      [
        ";",
        "ttt"
      ],
      [
        ";",
        "~~~~~;"
      ],
      [
        ";",
        "yyyyy"
      ],
      [
        ";",
        "K_"
      ],
      [
        ";",
        "www"
      ],
      [
        ";",
        "tttttt"
      ],
      [
        ";",
        "xx_"
      ],
      [
        ";",
        "_____"
      ],
      [
        ";",
        "vvvvv"
      ],
      [
        ";",
        "ee;"
      ],
      [
        ";",
        "ccccc"
      ],
      [
        ";",
        "ppppppp"
      ],
      [
        ";",
        "vvvvvvv"
      ],
      [
        ";",
        "ccccccc"
      ],
      [
        "<",
        "~~"
      ],
      [
        "<",
        "~~~~~"
      ],
      [
        "<",
        "bb"
      ],
      [
        "<",
        "bQ"
      ],
      [
        "<",
        "fQ"
      ],
      [
        "?",
        "C"
      ],
      [
        "?",
        "O"
      ],
      [
        "?",
        "~~~~~"
      ],
      [
        "?",
        ";;;"
      ],
      [
        "@",
        "PP"
      ],
      [
        "@",
        ";~"
      ],
      [
        "K",
        "T"
      ],
      [
        "K",
        "x"
      ],
      [
        "K",
        "ww"
      ],
      [
        "K",
        ";;;;"
      ],
      [
        "K",
        "yyy"
      ],
      [
        "K",
        "kk"
      ],
      [
        "K",
        ";~~~~"
      ],
      [
        "K",
        "xxxxxx"
      ],
      [
        "K",
        "xxxxx"
      ],
      [
        "K",
        "[q"
      ],
      [
        "L",
        "~~~~"
      ],
      [
        "L",
        "PPPP"
      ],
      [
        "L",
        ";;;;"
      ],
      [
        "L",
        "PPPPPPP"
      ],
      [
        "L",
        "P`"
      ],
      [
        "O",
        "u"
      ],
      [
        "O",
        "zzzz"
      ],
      [
        "O",
        "wwww"
      ],
      [
        "O",
        "yyyyy"
      ],
      [
        "O",
        "www"
      ],
      [
        "O",
        "ttttt"
      ],
      [
        "O",
        "iii"
      ],
      [
        "O",
        "ddddd"
      ],
      [
        "O",
        "ddddddd"
      ],
      [
        "P",
        "U"
      ],
      [
        "P",
        "c"
      ],
      [
        "P",
        "f"
      ],
      [
        "P",
        "UU"
      ],
      [
        "P",
        "dddd"
      ],
      [
        "P",
        "zzzzz"
      ],
      [
        "P",
        "QQQQ"
      ],
      [
        "P",
        "ppppp"
      ],
      [
        "P",
        ";;;;;;;"
      ],
      [
        "P",
        "QQQQQ"
      ],
      [
        "Q",
        "~"
      ],
      [
        "Q",
        "PP"
      ],
      [
        "Q",
        "zzz"
      ],
      [
        "Q",
        "b<"
      ],
      [
        "Q",
        "jjU"
      ],
      [
        "S",
        "zz"
      ],
      [
        "S",
        ";;"
      ],
      [
        "T",
        "O"
      ],
      [
        "T",
        "e"
      ],
      [
        "T",
        ";~~~~~~"
      ],
      [
        "T",
        "iT"
      ],
      [
        "T",
        "OOT"
      ],
      [
        "U",
        "@"
      ],
      [
        "[",
        "o"
      ],
      [
        "[",
        "p"
      ],
      [
        "[",
        "t"
      ],
      [
        "[",
        ";;"
      ],
      [
        "[",
        "~~~~~~~"
      ],
      [
        "[",
        "qq"
      ],
      [
        "[",
        ";~~~~~~"
      ],
      [
        "[",
        ";K"
      ],
      [
        "[",
        "Ku"
      ],
      [
        "\\",
        "zzzz"
      ],
      [
        "\\",
        "rr"
      ],
      [
        "\\",
        "~;"
      ],
      [
        "\\",
        "~~;"
      ],
      [
        "\\",
        "aaaaa"
      ],
      [
        "_",
        "oo"
      ],
      [
        "_",
        "~~~~~~"
      ],
      [
        "_",
        "KK"
      ],
      [
        "_",
        ";;;;"
      ],
      [
        "_",
        ";~"
      ],
      [
        "_",
        "ttttt"
      ],
      [
        "_",
        "ooooo"
      ],
      [
        "_",
        "ppppppp"
      ],
      [
        "_",
        "p_"
      ],
      [
        "`",
        "zz"
      ],
      [
        "`",
        "zzzz"
      ],
      [
        "`",
        "zzz"
      ],
      [
        "`",
        "uuuu"
      ],
      [
        "`",
        "ooo"
      ],
      [
        "`",
        "L~~~~~~"
      ],
      [
        "a",
        "vv"
      ],
      [
        "a",
        ";~~~"
      ],
      [
        "b",
        "f"
      ],
      [
        "b",
        "fQ~~~"
      ],
      [
        "c",
        "~~~~"
      ],
      [
        "c",
        ";;"
      ],
      [
        "c",
        "~~~"
      ],
      [
        "c",
        "KK"
      ],
      [
        "c",
        "ttt"
      ],
      [
        "c",
        "hh"
      ],
      [
        "d",
        "yyyyyy"
      ],
      [
        "d",
        ";_"
      ],
      [
        "e",
        "<"
      ],
      [
        "e",
        "O"
      ],
      [
        "e",
        "zzz"
      ],
      [
        "e",
        "K_"
      ],
      [
        "e",
        "PP;"
      ],
      [
        "e",
        "ze"
      ],
      [
        "e",
        "z~"
      ],
      [
        "f",
        "a"
      ],
      [
        "f",
        "~~~"
      ],
      [
        "f",
        "~~~~~"
      ],
      [
        "f",
        "~~~~f"
      ],
      [
        "g",
        "w"
      ],
      [
        "i",
        "O"
      ],
      [
        "i",
        "y"
      ],
      [
        "i",
        "TT"
      ],
      [
        "i",
        "O~"
      ],
      [
        "k",
        "~"
      ],
      [
        "k",
        ";;"
      ],
      [
        "k",
        "Kq"
      ],
      [
        "o",
        "K"
      ],
      [
        "o",
        "["
      ],
      [
        "o",
        "p"
      ],
      [
        "o",
        "``"
      ],
      [
        "o",
        "ttt"
      ],
      [
        "o",
        "ppp"
      ],
      [
        "o",
        "K~~~"
      ],
      [
        "o",
        "`~~~~~~"
      ],
      [
        "p",
        "S"
      ],
      [
        "p",
        "["
      ],
      [
        "p",
        "q"
      ],
      [
        "p",
        "~~~~"
      ],
      [
        "q",
        "p"
      ],
      [
        "q",
        "r"
      ],
      [
        "q",
        "uu"
      ],
      [
        "q",
        "aaaa"
      ],
      [
        "q",
        "uuuu"
      ],
      [
        "q",
        "kkk"
      ],
      [
        "s",
        ";~~~~"
      ],
      [
        "s",
        ";~~~~~~"
      ],
      [
        "s",
        "Ksss"
      ],
      [
        "t",
        "xxxx"
      ],
      [
        "t",
        "x;"
      ],
      [
        "t",
        "O~~~~~~"
      ],
      [
        "u",
        "d"
      ],
      [
        "u",
        "q"
      ],
      [
        "u",
        "~~~~~~~"
      ],
      [
        "u",
        "\\\\"
      ],
      [
        "u",
        "`u"
      ],
      [
        "u",
        "pu"
      ],
      [
        "v",
        "uu"
      ],
      [
        "v",
        "zzzzzzz"
      ],
      [
        "v",
        "q~~~~~~"
      ],
      [
        "w",
        "_"
      ],
      [
        "w",
        "ssss"
      ],
      [
        "x",
        "ss"
      ],
      [
        "x",
        "___"
      ],
      [
        "x",
        "uuu"
      ],
      [
        "x",
        "yyyyy"
      ],
      [
        "x",
        "vvv"
      ],
      [
        "x",
        "yyyyyyy"
      ],
      [
        "y",
        "OO"
      ],
      [
        "y",
        "eeee"
      ],
      [
        "y",
        "ddd"
      ],
      [
        "y",
        ";P"
      ],
      [
        "y",
        ";O"
      ],
      [
        "y",
        "xxxxxxx"
      ],
      [
        "y",
        "O~~~"
      ],
      [
        "z",
        "Q"
      ],
      [
        "z",
        "\\"
      ],
      [
        "z",
        "cc"
      ],
      [
        "z",
        "~~;"
      ],
      [
        "z",
        "~P"
      ],
      [
        "z",
        "P~~"
      ],
      [
        "z",
        "iii"
      ],
      [
        "z",
        "P;~~~~~"
      ],
      [
        "~",
        "@"
      ],
      [
        "~",
        "xx"
      ],
      [
        "~",
        "``"
      ],
      [
        "~",
        "P;"
      ],
      [
        "~",
        "K;"
      ],
      [
        "~",
        "K~"
      ],
      [
        "~",
        ";;;;;;;"
      ],
      [
        "~~",
        "`"
      ],
      [
        "~~",
        "d"
      ],
      [
        "~~",
        "zzzz"
      ],
      [
        "~~",
        "``"
      ],
      [
        "~~",
        "??"
      ],
      [
        "~~",
        "eee"
      ],
      [
        "~~",
        "O;"
      ],
      [
        "~~",
        "PPPPPP"
      ],
      [
        "~~",
        "K~~~~~"
      ],
      [
        "~~",
        ";;;;;;"
      ],
      [
        "~~",
        "dddddd"
      ],
      [
        "~~",
        "\\qqqqq"
      ],
      [
        "~~",
        "PPP~~~"
      ],
      [
        "~~~~",
        "L"
      ],
      [
        "~~~~",
        "a"
      ],
      [
        "~~~~",
        "c"
      ],
      [
        "~~~~",
        "p"
      ],
      [
        "~~~~",
        "aa"
      ],
      [
        "~~~~",
        "__"
      ],
      [
        "~~~~",
        "zzzz"
      ],
      [
        "~~~~",
        "P~~~"
      ],
      [
        "~~~~",
        ";;~~"
      ],
      [
        "~~~~",
        "PP~~"
      ],
      [
        "~~~~",
        "Pzzz"
      ],
      [
        "~~~~",
        "Pz~~"
      ],
      [
        "~~~~",
        "d~~~"
      ],
      [
        "~~~~",
        "ze~P"
      ],
      [
        "~~~~",
        "K~~K"
      ],
      [
        "zz",
        "d"
      ],
      [
        "zz",
        "y"
      ],
      [
        "zz",
        "~~"
      ],
      [
        "zz",
        ";;"
      ],
      [
        "zz",
        "aa"
      ],
      [
        "zz",
        "P~~"
      ],
      [
        "zz",
        "Pzz"
      ],
      [
        "zz",
        "\\vv"
      ],
      [
        "zz",
        "dyy"
      ],
      [
        "zz",
        ";zz"
      ],
      [
        "zz",
        "Pez"
      ],
      [
        "zz",
        "dyyydd"
      ],
      [
        "PP",
        "Q"
      ],
      [
        "PP",
        "`"
      ],
      [
        "PP",
        "a"
      ],
      [
        "PP",
        "vv"
      ],
      [
        "PP",
        "zzz"
      ],
      [
        "PP",
        "eee"
      ],
      [
        "PP",
        "aaa"
      ],
      [
        "PP",
        ";;~"
      ],
      [
        "xx",
        "y"
      ],
      [
        "xx",
        "~"
      ],
      [
        "xx",
        ";;~~~~"
      ],
      [
        ";;",
        "["
      ],
      [
        ";;",
        "k"
      ],
      [
        ";;",
        "s"
      ],
      [
        ";;",
        "t"
      ],
      [
        ";;",
        "z"
      ],
      [
        ";;",
        "PPPP"
      ],
      [
        ";;",
        "xxx"
      ],
      [
        ";;",
        "_;"
      ],
      [
        ";;",
        "aaaaaa"
      ],
      [
        ";;",
        "~~;PPP"
      ],
      [
        "~~~",
        "<"
      ],
      [
        "~~~",
        "PPP"
      ],
      [
        "~~~",
        ";~"
      ],
      [
        "~~~",
        "zzzzz"
      ],
      [
        "~~~",
        "<<"
      ],
      [
        "~~~",
        "dy"
      ],
      [
        "~~~",
        "Ko"
      ],
      [
        "~~~",
        ";;P"
      ],
      [
        "~~~",
        ";;;;;"
      ],
      [
        "~~~",
        "PPP~~"
      ],
      [
        "~~~",
        "d~~~~"
      ],
      [
        "tt",
        "xx"
      ],
      [
        "tt",
        "__"
      ],
      [
        "tt",
        "K~~~~~"
      ],
      [
        "tt",
        "xxt"
      ],
      [
        "aa",
        "~~~~~~"
      ],
      [
        "aa",
        "rrrr"
      ],
      [
        "__",
        "~~"
      ],
      [
        "__",
        "~~~~"
      ],
      [
        "__",
        ";;;"
      ],
      [
        "__",
        ";~~"
      ],
      [
        "dd",
        "OOO"
      ],
      [
        "dd",
        "yyyd"
      ],
      [
        "ee",
        "zzzz"
      ],
      [
        "ee",
        "uu"
      ],
      [
        "ee",
        "P~"
      ],
      [
        "ee",
        ";P"
      ],
      [
        "ee",
        "z~"
      ],
      [
        "zzzz",
        "O"
      ],
      [
        "zzzz",
        "~~~~"
      ],
      [
        "zzzz",
        "P~~~"
      ],
      [
        "uu",
        "O"
      ],
      [
        "uu",
        "\\"
      ],
      [
        "uu",
        "v"
      ],
      [
        "uu",
        "z"
      ],
      [
        "uu",
        "`uuu"
      ],
      [
        "vv",
        ";~~~~~"
      ],
      [
        "vv",
        "q;"
      ],
      [
        "oo",
        ";"
      ],
      [
        "oo",
        "t"
      ],
      [
        "oo",
        "~~~~~~"
      ],
      [
        "oo",
        "`ee"
      ],
      [
        "~~~~~",
        "OO"
      ],
      [
        "~~~~~",
        "zzz"
      ],
      [
        "~~~~~",
        "LL"
      ],
      [
        "~~~~~",
        "Pe"
      ],
      [
        "~~~~~",
        "K~~"
      ],
      [
        "~~~~~",
        "```"
      ],
      [
        "~~~~~",
        "Ko"
      ],
      [
        "~~~~~",
        "e~~"
      ],
      [
        "~~~~~",
        "KKK"
      ],
      [
        "~~~~~",
        "\\aa"
      ],
      [
        "~~~~~",
        "_tt"
      ],
      [
        "~~~~~",
        "Ty"
      ],
      [
        "OO",
        ";"
      ],
      [
        "OO",
        "`"
      ],
      [
        "OO",
        "PP"
      ],
      [
        "OO",
        "~~~~~"
      ],
      [
        "OO",
        "???"
      ],
      [
        "~~~~~~",
        "f"
      ],
      [
        "~~~~~~",
        "aa"
      ],
      [
        "~~~~~~",
        "oo"
      ],
      [
        "~~~~~~",
        "ez"
      ],
      [
        "~~~~~~",
        "yO"
      ],
      [
        "~~~~~~",
        "Ti"
      ],
      [
        "~~~~~~",
        "Ot"
      ],
      [
        "~~~~~~",
        "?~"
      ],
      [
        "~~~~~~",
        "`o"
      ],
      [
        "~~~~~~",
        "f~"
      ],
      [
        "xxxx",
        "yy"
      ],
      [
        "xxxx",
        ";_"
      ],
      [
        "~~~~~~~",
        "["
      ],
      [
        "~~~~~~~",
        "u"
      ],
      [
        "cc",
        "___"
      ],
      [
        "cc",
        ";~~~~~"
      ],
      [
        "PPPP",
        "<"
      ],
      [
        "PPPP",
        ";P"
      ],
      [
        "ss",
        "K"
      ],
      [
        "ss",
        "O"
      ],
      [
        "ss",
        "w"
      ],
      [
        "ss",
        "www"
      ],
      [
        "ss",
        "Ksss"
      ],
      [
        "yyyy",
        "O~~~"
      ],
      [
        "pp",
        "~"
      ],
      [
        "ww",
        "O"
      ],
      [
        "ww",
        "yyyyyy"
      ],
      [
        "ii",
        "T"
      ],
      [
        "ii",
        ";~~~~~"
      ],
      [
        "ii",
        "YY"
      ],
      [
        ";;;",
        "?"
      ],
      [
        ";;;",
        "~;"
      ],
      [
        ";;;",
        "___"
      ],
      [
        ";;;",
        "PPPPP"
      ],
      [
        "tttt",
        "KK"
      ],
      [
        "tttt",
        "_~~~"
      ],
      [
        "aaaa",
        "P"
      ],
      [
        "aaaa",
        ";aaa"
      ],
      [
        "qq",
        "["
      ],
      [
        "qq",
        "p"
      ],
      [
        "qq",
        ";~~"
      ],
      [
        "qq",
        "llllll"
      ],
      [
        "qq",
        ";q"
      ],
      [
        "PPP",
        "U"
      ],
      [
        "QQ",
        ";~~~~~"
      ],
      [
        "QQ",
        "<<"
      ],
      [
        "``",
        "~"
      ],
      [
        "KK",
        "_"
      ],
      [
        "KK",
        "c"
      ],
      [
        "KK",
        "xx"
      ],
      [
        "KK",
        "~~~"
      ],
      [
        "KK",
        "K~~~~~"
      ],
      [
        "____",
        "KK"
      ],
      [
        "____",
        ";~~~"
      ],
      [
        "____",
        "__;"
      ],
      [
        "zzz",
        "PP"
      ],
      [
        "zzz",
        "~~~~~"
      ],
      [
        "zzz",
        ";;;"
      ],
      [
        "zzz",
        ";~~"
      ],
      [
        "zzz",
        "P~~~~"
      ],
      [
        ";;;;",
        "x"
      ],
      [
        ";;;;",
        ";;;~"
      ],
      [
        ";;;;",
        "_~"
      ],
      [
        "xxx",
        "tt"
      ],
      [
        "xxx",
        "_;"
      ],
      [
        "[[",
        ";~~~~~"
      ],
      [
        "dddd",
        ";~~"
      ],
      [
        "SS",
        ";"
      ],
      [
        ";~",
        "\\"
      ],
      [
        ";~",
        ";;"
      ],
      [
        ";~",
        ";;;"
      ],
      [
        ";~",
        "P~"
      ],
      [
        "TT",
        "i"
      ],
      [
        "TT",
        "OO"
      ],
      [
        "rr",
        "\\"
      ],
      [
        "eeee",
        "P"
      ],
      [
        "eeee",
        "y"
      ],
      [
        "eeee",
        "P~~~"
      ],
      [
        "yyy",
        "o"
      ],
      [
        "yyy",
        "xxx"
      ],
      [
        "yyy",
        ";~~~~"
      ],
      [
        "yyy",
        "O~"
      ],
      [
        "yyy",
        "ddddd"
      ],
      [
        "yyy",
        "O~~~~"
      ],
      [
        "vvvv",
        "Lv"
      ],
      [
        "P;",
        "y"
      ],
      [
        "P;",
        "~~~"
      ],
      [
        "P;",
        "PPPP"
      ],
      [
        "P;",
        "ss"
      ],
      [
        "P;",
        "Pee"
      ],
      [
        "~;",
        "O"
      ],
      [
        "~;",
        "g"
      ],
      [
        "~;",
        "~~~~"
      ],
      [
        "~;",
        "xxxxxx"
      ],
      [
        "kk",
        ";;"
      ],
      [
        "uuuu",
        ";"
      ],
      [
        "~~;",
        "__"
      ],
      [
        "~~;",
        "zzz"
      ],
      [
        "~~;",
        "dddd"
      ],
      [
        "~~;",
        "xxxxx"
      ],
      [
        "~~;",
        "z~"
      ],
      [
        "~~;",
        "dO"
      ],
      [
        "~~;",
        "vvvvv"
      ],
      [
        "??",
        "~~"
      ],
      [
        "~~~~;",
        "_"
      ],
      [
        "~~~~;",
        "s"
      ],
      [
        "~~~~;",
        "yyy"
      ],
      [
        "~~~~;",
        "ttt"
      ],
      [
        "~~~~;",
        "z~~"
      ],
      [
        "___",
        "oooo"
      ],
      [
        "___",
        "ttt"
      ],
      [
        "eee",
        "z"
      ],
      [
        "eee",
        "~~"
      ],
      [
        "eee",
        "PP"
      ],
      [
        "eee",
        "P~"
      ],
      [
        "P~",
        ";~"
      ],
      [
        "P~",
        "e;"
      ],
      [
        "P~",
        "ez~~~~"
      ],
      [
        ";~~",
        "z"
      ],
      [
        "ddd",
        "O"
      ],
      [
        "ddd",
        "y"
      ],
      [
        "ddd",
        "OOO"
      ],
      [
        "ttt",
        "o"
      ],
      [
        "ttt",
        ";~~~~"
      ],
      [
        "ttt",
        "xxxxx"
      ],
      [
        "ttt",
        "_K"
      ],
      [
        "ttt",
        "K~~~~"
      ],
      [
        "~~~;",
        "a"
      ],
      [
        "~~~;",
        "____"
      ],
      [
        "iiii",
        "O"
      ],
      [
        "iiii",
        "TT"
      ],
      [
        "iiii",
        "e~"
      ],
      [
        "~~~~~;",
        "vv"
      ],
      [
        "~~~~~;",
        "cc"
      ],
      [
        "~~~~~;",
        "ii"
      ],
      [
        "~~~~~;",
        "QQ"
      ],
      [
        "~~~~~;",
        "[["
      ],
      [
        "~~~~~;",
        "Pz"
      ],
      [
        "~~~~~;",
        "Pe"
      ],
      [
        "~~~~~;",
        "Od"
      ],
      [
        "OOO",
        "d"
      ],
      [
        "OOO",
        ";;"
      ],
      [
        "wwww",
        "s;"
      ],
      [
        "wwww",
        "wws"
      ],
      [
        "gg",
        "SS"
      ],
      [
        "uuu",
        "y"
      ],
      [
        "uuu",
        "`uu"
      ],
      [
        "~~~~~~;",
        "T"
      ],
      [
        "~~~~~~;",
        "["
      ],
      [
        "~~~~~~;",
        "s"
      ],
      [
        "zzzzz",
        "P"
      ],
      [
        "zzzzz",
        "~~~"
      ],
      [
        "zzzzz",
        ";;P"
      ],
      [
        "zzzzz",
        ";ee"
      ],
      [
        "zzzzz",
        "Qzz"
      ],
      [
        "yyyyy",
        "O"
      ],
      [
        "yyyyy",
        "x"
      ],
      [
        "yyyyy",
        "O~~"
      ],
      [
        "yyyyy",
        "ddO"
      ],
      [
        "aaa",
        "Pz"
      ],
      [
        "aaa",
        "\\aa"
      ],
      [
        "aaa",
        ";aaaa"
      ],
      [
        "~P",
        "T"
      ],
      [
        "~P",
        "zzzz"
      ],
      [
        "K_",
        "tttttt"
      ],
      [
        "K_",
        "K__"
      ],
      [
        "xxxxxx",
        "K"
      ],
      [
        "xxxxxx",
        ";~"
      ],
      [
        "xxxxxx",
        "K_"
      ],
      [
        "xxxxxx",
        ";x"
      ],
      [
        ";P",
        "s"
      ],
      [
        ";P",
        ";;"
      ],
      [
        "ccc",
        "Occ"
      ],
      [
        "Pz",
        "~~~"
      ],
      [
        "Pz",
        "P~~~~~"
      ],
      [
        "PPPPP",
        ";;;"
      ],
      [
        "LL",
        "~~~~~"
      ],
      [
        "xxxxx",
        "y"
      ],
      [
        "xxxxx",
        ";~~"
      ],
      [
        "xxxxx",
        "ttt"
      ],
      [
        "xxxxx",
        ";xx"
      ],
      [
        "_K",
        ";"
      ],
      [
        "_K",
        "e"
      ],
      [
        "_K",
        "xxxxxx"
      ],
      [
        "_K",
        "______"
      ],
      [
        ";O",
        "~~"
      ],
      [
        "PPPPPP",
        "~~"
      ],
      [
        "ooo",
        "`"
      ],
      [
        "K;",
        "["
      ],
      [
        "ttttt",
        "_"
      ],
      [
        "ttttt",
        "O~~"
      ],
      [
        "ttttt",
        "__;"
      ],
      [
        "ze",
        "~~~~~~"
      ],
      [
        "PPP;",
        "z~"
      ],
      [
        "_;",
        "xxxx"
      ],
      [
        "yyyyyy",
        "ww"
      ],
      [
        "~O",
        "z"
      ],
      [
        "~O",
        "yyy"
      ],
      [
        "~O",
        "tttttt"
      ],
      [
        "tttttt",
        "_K"
      ],
      [
        "tttttt",
        "O~"
      ],
      [
        "tttttt",
        "_~"
      ],
      [
        "````",
        "```P"
      ],
      [
        "xx_",
        "xx"
      ],
      [
        "zzzzzzz",
        "v"
      ],
      [
        "<<",
        "~~~"
      ],
      [
        "dO",
        "~~"
      ],
      [
        "dO",
        ";~~~~~"
      ],
      [
        "rrrr",
        ";"
      ],
      [
        "rrrr",
        "aa"
      ],
      [
        "iii",
        "z"
      ],
      [
        "SSSS",
        "?"
      ],
      [
        ";_",
        "xxx"
      ],
      [
        "aaaaaa",
        ";;"
      ],
      [
        "aaaaaa",
        ";a"
      ],
      [
        "xxxxxxx",
        "y"
      ],
      [
        "P~~~",
        "Pe"
      ],
      [
        "ddddd",
        "yyy"
      ],
      [
        "Od",
        ";~~"
      ],
      [
        "Od",
        "yyO"
      ],
      [
        "P;;",
        "P"
      ],
      [
        "P;;",
        "~~~"
      ],
      [
        "P;;",
        "zzzzz"
      ],
      [
        "`e",
        "P"
      ],
      [
        "~z",
        ";PPP"
      ],
      [
        "xx;",
        "x"
      ],
      [
        "xx;",
        "xxxxx"
      ],
      [
        "yyyyyyy",
        "x"
      ],
      [
        "???",
        "OO"
      ],
      [
        "Ku",
        "K"
      ],
      [
        "K~~",
        "K~~~~"
      ],
      [
        "QQQQ",
        "QQ"
      ],
      [
        "xxx_",
        "~"
      ],
      [
        "~;;",
        ";;;~~"
      ],
      [
        "~~O",
        "yyyyy"
      ],
      [
        "~~O",
        "ttttt"
      ],
      [
        "```",
        "L"
      ],
      [
        "```",
        "~~~~~"
      ],
      [
        "d;",
        "d"
      ],
      [
        "d;",
        "__"
      ],
      [
        "d;",
        "PPPPPP"
      ],
      [
        "x;",
        "xxxxxx"
      ],
      [
        "~~~O",
        "y"
      ],
      [
        "~~~O",
        "yyyy"
      ],
      [
        "qqqqq",
        ";~"
      ],
      [
        "qqqqq",
        "\\~~"
      ],
      [
        "cO",
        "cccccc"
      ],
      [
        "yd",
        "~~~"
      ],
      [
        "~~;;",
        "~~~~"
      ],
      [
        "~~;;",
        ";;;~"
      ],
      [
        "eeeeee",
        "uy"
      ],
      [
        "kkk",
        "q"
      ],
      [
        "s;",
        "s"
      ],
      [
        ";;;;;;",
        "~~"
      ],
      [
        "~~~P",
        "~~~~"
      ],
      [
        "~~~P",
        "zzzz"
      ],
      [
        "~~~P",
        "eeee"
      ],
      [
        "dddddd",
        "~~"
      ],
      [
        ";;;;;",
        "~~~"
      ],
      [
        "______",
        "K_"
      ],
      [
        "vvvvv",
        ";~~"
      ],
      [
        "vvvvv",
        "Ox"
      ],
      [
        "o`e",
        "`o"
      ],
      [
        "`p",
        "K"
      ],
      [
        "a;",
        "PP;"
      ],
      [
        "a;",
        "aaaaaa"
      ],
      [
        "ee;",
        "zzzzz"
      ],
      [
        "ee;",
        "ee;"
      ],
      [
        "PPPPPPP",
        "L"
      ],
      [
        "qqq",
        "p\\"
      ],
      [
        "KKKK",
        "K"
      ],
      [
        "~_",
        "tttttt"
      ],
      [
        "~_",
        "cccccc"
      ],
      [
        "sssss",
        ";"
      ],
      [
        "K;;",
        "K"
      ],
      [
        "K;;",
        "~~~"
      ],
      [
        "iT",
        "~~~~~~"
      ],
      [
        "to",
        "t"
      ],
      [
        "~~PP",
        "~~~~"
      ],
      [
        "Kk",
        "p"
      ],
      [
        "YY",
        "ii"
      ],
      [
        "tt_",
        "~~"
      ],
      [
        "tt_",
        "~~~~~"
      ],
      [
        "swwww",
        "ww"
      ],
      [
        "HH",
        "H"
      ],
      [
        "`u",
        "pu"
      ],
      [
        "sw",
        "O"
      ],
      [
        "~~~~K",
        "ttt"
      ],
      [
        "dd;",
        "d"
      ],
      [
        "~~~~~K",
        "tt"
      ],
      [
        "~~~~~K",
        "`K"
      ],
      [
        "Lv",
        "LL"
      ],
      [
        "~~~~;;",
        "xx"
      ],
      [
        ";;;;;;;",
        "P"
      ],
      [
        "vv\\",
        "zz"
      ],
      [
        "vv\\",
        "u;uuu"
      ],
      [
        "cccccc",
        "Oc"
      ],
      [
        "cccccc",
        "_~"
      ],
      [
        "ppppppp",
        ";"
      ],
      [
        "ppppppp",
        "_"
      ],
      [
        ";__",
        "ttttt"
      ],
      [
        "Odd",
        "yyyyy"
      ],
      [
        "\\p",
        "qqq"
      ],
      [
        ";e",
        "~z;PPP"
      ],
      [
        "Oy",
        "~~~~~~"
      ],
      [
        "~~f",
        "~~~~f"
      ],
      [
        "ddddddd",
        "O"
      ],
      [
        "uP",
        "u"
      ],
      [
        "uP",
        "uuuu"
      ],
      [
        "y_",
        "y"
      ],
      [
        "~f",
        "~~~~~~"
      ],
      [
        "~f",
        "a~~~~~"
      ],
      [
        "~~e",
        "~~~~~"
      ],
      [
        "vvvvvvv",
        ";"
      ],
      [
        ";??",
        "??"
      ],
      [
        "K;;;",
        "K"
      ],
      [
        "Ks",
        "K"
      ],
      [
        "kq",
        "["
      ],
      [
        "~~~~O",
        "yyy"
      ],
      [
        "~~~~K_",
        "K~"
      ],
      [
        "yyd",
        "zz"
      ],
      [
        "~~~_",
        "tttt"
      ],
      [
        "bbbQ",
        "j"
      ],
      [
        "eP;",
        "~~~~~"
      ],
      [
        "txx",
        "tt"
      ],
      [
        "~~z",
        ";~~~~"
      ],
      [
        "ccO",
        "ccc"
      ],
      [
        "ccO",
        "ccccc"
      ],
      [
        "QQQQQ",
        "P"
      ],
      [
        "K`",
        "K~~~~~"
      ],
      [
        "\\~~~",
        "\\p"
      ],
      [
        "too",
        "K"
      ],
      [
        "yu",
        "eeeeee"
      ],
      [
        "aa\\",
        "~~~~~"
      ],
      [
        "aa\\",
        "aaa"
      ],
      [
        "PPPPPP;",
        "d"
      ],
      [
        "ccccccc",
        ";"
      ],
      [
        "llllll",
        "qq"
      ],
      [
        "~K_",
        "K~~~~"
      ],
      [
        "~~zP",
        "~~~~"
      ],
      [
        "~~~~~Pz",
        "P"
      ],
      [
        ";k",
        "qq"
      ],
      [
        "Ujj",
        "Q"
      ],
      [
        "~;;;;",
        "~~~"
      ],
      [
        "~~~;;;;",
        "P"
      ],
      [
        "~~~;;;;",
        "~"
      ],
      [
        "~~~~~~L",
        "`"
      ],
      [
        "P;;;;",
        "~~~"
      ],
      [
        "hh",
        "c"
      ],
      [
        "~?",
        "~~~~~~"
      ],
      [
        "PPP;~~",
        ";;"
      ],
      [
        "uuu;u",
        "\\vv"
      ],
      [
        "P````",
        "```"
      ],
      [
        "~~aa",
        "~~~~"
      ],
      [
        "zzQ",
        "zzzzz"
      ],
      [
        "cccccO",
        "cc"
      ],
      [
        "cxO",
        "vvvvv"
      ],
      [
        "~~~~~af",
        "~"
      ],
      [
        "~~~~~~q",
        "v"
      ],
      [
        "f~~~~f",
        "~~"
      ],
      [
        "iy",
        "T~~~~~"
      ],
      [
        "~~~~aa",
        "~~"
      ],
      [
        "ddyyyd",
        "zz"
      ],
      [
        "~~~~~Ty",
        "i"
      ],
      [
        "PPP;z~",
        "e;"
      ],
      [
        "vvvvvOx",
        "c"
      ],
      [
        ";",
        "<"
      ],
      [
        ";",
        "C"
      ],
      [
        ";",
        "d"
      ],
      [
        ";",
        "tt"
      ],
      [
        ";",
        "zzzz"
      ],
      [
        ";",
        "vv"
      ],
      [
        ";",
        "xxxx"
      ],
      [
        ";",
        "yyyy"
      ],
      [
        ";",
        "qq"
      ],
      [
        ";",
        "jj"
      ],
      [
        ";",
        "kk"
      ],
      [
        ";",
        "uuuu"
      ],
      [
        ";",
        "ddd"
      ],
      [
        ";",
        "x_"
      ],
      [
        ";",
        "OOO"
      ],
      [
        ";",
        "uuu"
      ],
      [
        ";",
        "~~~~~~;"
      ],
      [
        ";",
        "\\\\"
      ],
      [
        ";",
        "xxxxx"
      ],
      [
        ";",
        "ooo"
      ],
      [
        ";",
        "PPP;"
      ],
      [
        ";",
        "````"
      ],
      [
        ";",
        "[;"
      ],
      [
        ";",
        "QQQQ"
      ],
      [
        ";",
        "SSS"
      ],
      [
        ";",
        "ss;"
      ],
      [
        ";",
        "s;"
      ],
      [
        ";",
        "t;"
      ],
      [
        ";",
        "xxx;"
      ],
      [
        ";",
        "eeeeeee"
      ],
      [
        ";",
        "yy;"
      ],
      [
        ";",
        "uP"
      ],
      [
        ";",
        "jjj"
      ],
      [
        ";",
        "sss;"
      ],
      [
        ";",
        "yPyP"
      ],
      [
        ";",
        "__;d"
      ],
      [
        ";",
        "xxxxxxK"
      ],
      [
        ";",
        "qqqqq;~"
      ],
      [
        "<",
        "~~~~"
      ],
      [
        "<",
        "ee"
      ],
      [
        "<",
        "PPPP"
      ],
      [
        "<",
        "PPPPP"
      ],
      [
        "<",
        "zee"
      ],
      [
        "<",
        "PP<"
      ],
      [
        "?",
        "`"
      ],
      [
        "?",
        "zz"
      ],
      [
        "?",
        ";;"
      ],
      [
        "?",
        "OO"
      ],
      [
        "?",
        "cc"
      ],
      [
        "?",
        "PPP"
      ],
      [
        "?",
        "~~~;"
      ],
      [
        "?",
        "OOO"
      ],
      [
        "?",
        "~O"
      ],
      [
        "?",
        "CC"
      ],
      [
        "?",
        "gggg"
      ],
      [
        "?",
        "SSS?"
      ],
      [
        "@",
        "P"
      ],
      [
        "@",
        "j"
      ],
      [
        "@",
        "~~~~"
      ],
      [
        "@",
        "~~~~~~~"
      ],
      [
        "@",
        "P;"
      ],
      [
        "@",
        ";~~"
      ],
      [
        "@",
        "PP;"
      ],
      [
        "@",
        ";eee"
      ],
      [
        "C",
        ";"
      ],
      [
        "C",
        "H"
      ],
      [
        "C",
        "???"
      ],
      [
        "K",
        "O"
      ],
      [
        "K",
        "a"
      ],
      [
        "K",
        "xx"
      ],
      [
        "K",
        "cc"
      ],
      [
        "K",
        "aaaa"
      ],
      [
        "K",
        "~~;"
      ],
      [
        "K",
        "~~~~~~;"
      ],
      [
        "K",
        ";~~~~~~"
      ],
      [
        "K",
        "`p"
      ],
      [
        "K",
        "qqq"
      ],
      [
        "K",
        "sssss"
      ],
      [
        "K",
        "uuuuuuu"
      ],
      [
        "K",
        "aPa"
      ],
      [
        "L",
        "P"
      ],
      [
        "L",
        "~~"
      ],
      [
        "L",
        "~~~~~"
      ],
      [
        "L",
        "``"
      ],
      [
        "L",
        ";~~"
      ],
      [
        "L",
        "aaa"
      ],
      [
        "L",
        "````"
      ],
      [
        "L",
        "qqqqq"
      ],
      [
        "L",
        "aaaaaaa"
      ],
      [
        "L",
        "`eee"
      ],
      [
        "L",
        "PL"
      ],
      [
        "O",
        "K"
      ],
      [
        "O",
        "Y"
      ],
      [
        "O",
        "_"
      ],
      [
        "O",
        "a"
      ],
      [
        "O",
        "uu"
      ],
      [
        "O",
        "tttt"
      ],
      [
        "O",
        ";~"
      ],
      [
        "O",
        ";~~"
      ],
      [
        "O",
        "ppp"
      ],
      [
        "O",
        "~~~~~~;"
      ],
      [
        "O",
        "zzzzzzz"
      ],
      [
        "O",
        "dO"
      ],
      [
        "O",
        "fff"
      ],
      [
        "O",
        "ddO"
      ],
      [
        "O",
        ";;;;;"
      ],
      [
        "O",
        "y;"
      ],
      [
        "O",
        "PP;;"
      ],
      [
        "O",
        "PPPPPPP"
      ],
      [
        "O",
        "wwwww"
      ],
      [
        "O",
        "iiz"
      ],
      [
        "O",
        "P;~~"
      ],
      [
        "O",
        "wwwO"
      ],
      [
        "O",
        "~~;dddd"
      ],
      [
        "P",
        "@"
      ],
      [
        "P",
        "T"
      ],
      [
        "P",
        "j"
      ],
      [
        "P",
        "__"
      ],
      [
        "P",
        "dd"
      ],
      [
        "P",
        "oo"
      ],
      [
        "P",
        "pp"
      ],
      [
        "P",
        "ii"
      ],
      [
        "P",
        "``"
      ],
      [
        "P",
        "yyy"
      ],
      [
        "P",
        "ppp"
      ],
      [
        "P",
        "@@"
      ],
      [
        "P",
        "uuu"
      ],
      [
        "P",
        "O;"
      ],
      [
        "P",
        "ooo"
      ],
      [
        "P",
        "eeeeeee"
      ],
      [
        "P",
        "T~"
      ],
      [
        "P",
        "LLL"
      ],
      [
        "P",
        "@@@"
      ],
      [
        "P",
        "UUUUUUU"
      ],
      [
        "Q",
        "j"
      ],
      [
        "Q",
        "v"
      ],
      [
        "Q",
        "bb"
      ],
      [
        "Q",
        "eee"
      ],
      [
        "Q",
        "P~"
      ],
      [
        "Q",
        ";~~~~~~"
      ],
      [
        "Q",
        "PP;"
      ],
      [
        "Q",
        "Pz"
      ],
      [
        "Q",
        "ez"
      ],
      [
        "Q",
        "eeeeee"
      ],
      [
        "Q",
        "PPQQ"
      ],
      [
        "S",
        "~~~~~~~"
      ],
      [
        "S",
        "wwwww"
      ],
      [
        "S",
        "p~"
      ],
      [
        "S",
        "??S"
      ],
      [
        "S",
        "pS"
      ],
      [
        "T",
        "OO"
      ],
      [
        "T",
        "~~~~~~"
      ],
      [
        "T",
        ";~~~~"
      ],
      [
        "T",
        "OOO"
      ],
      [
        "T",
        "O~"
      ],
      [
        "T",
        "O~~"
      ],
      [
        "T",
        "O~~~~~~"
      ],
      [
        "T",
        "iiiiii"
      ],
      [
        "T",
        "iiiii"
      ],
      [
        "U",
        "~~"
      ],
      [
        "U",
        "PPP;"
      ],
      [
        "U",
        "jjj"
      ],
      [
        "Y",
        "O"
      ],
      [
        "[",
        "K"
      ],
      [
        "[",
        "tt"
      ],
      [
        "[",
        "xxxx"
      ],
      [
        "[",
        ";;;"
      ],
      [
        "[",
        "PP;"
      ],
      [
        "[",
        "pppp"
      ],
      [
        "[",
        "uK"
      ],
      [
        "[",
        "eeeeeee"
      ],
      [
        "[",
        "k["
      ],
      [
        "\\",
        ";;;"
      ],
      [
        "\\",
        "aaaa"
      ],
      [
        "\\",
        "qq"
      ],
      [
        "\\",
        "~~~~;"
      ],
      [
        "\\",
        "vvv"
      ],
      [
        "\\",
        "z~"
      ],
      [
        "_",
        "f"
      ],
      [
        "_",
        "p"
      ],
      [
        "_",
        "s"
      ],
      [
        "_",
        "w"
      ],
      [
        "_",
        "PP"
      ],
      [
        "_",
        "tttt"
      ],
      [
        "_",
        "~~;"
      ],
      [
        "_",
        ";~~~~"
      ],
      [
        "_",
        "ppp"
      ],
      [
        "_",
        "yyyyy"
      ],
      [
        "_",
        "xxxxxx"
      ],
      [
        "_",
        "OOOO"
      ],
      [
        "_",
        "Pz"
      ],
      [
        "_",
        "QQQ"
      ],
      [
        "_",
        "zzzzzzz"
      ],
      [
        "_",
        "ffff"
      ],
      [
        "_",
        "t_"
      ],
      [
        "_",
        ";;~"
      ],
      [
        "_",
        "xxx_"
      ],
      [
        "_",
        "~~_"
      ],
      [
        "_",
        ";;;;;;;"
      ],
      [
        "_",
        "KKK"
      ],
      [
        "_",
        "cccccc"
      ],
      [
        "_",
        "pppppp"
      ],
      [
        "_",
        "y_"
      ],
      [
        "_",
        "Qee"
      ],
      [
        "_",
        "pp_"
      ],
      [
        "_",
        "ooo_"
      ],
      [
        "`",
        "a"
      ],
      [
        "`",
        "OO"
      ],
      [
        "`",
        "PPP"
      ],
      [
        "`",
        "PPPPP"
      ],
      [
        "`",
        "zzzzzz"
      ],
      [
        "`",
        "uuuuu"
      ],
      [
        "`",
        "PPPPPPP"
      ],
      [
        "`",
        "uu;"
      ],
      [
        "`",
        "eeeeeee"
      ],
      [
        "`",
        "y~~~~~y"
      ],
      [
        "a",
        "z"
      ],
      [
        "a",
        "PP"
      ],
      [
        "a",
        "PPP"
      ],
      [
        "a",
        "P~"
      ],
      [
        "a",
        "P~~"
      ],
      [
        "a",
        "K;"
      ],
      [
        "a",
        "rrrr"
      ],
      [
        "a",
        "P;;"
      ],
      [
        "a",
        "PPPPPPP"
      ],
      [
        "a",
        "rrr"
      ],
      [
        "a",
        "La"
      ],
      [
        "a",
        "Pee"
      ],
      [
        "a",
        "vL"
      ],
      [
        "a",
        "\\a"
      ],
      [
        "a",
        "PzPaaa"
      ],
      [
        "b",
        ";~"
      ],
      [
        "b",
        ";~~~~~~"
      ],
      [
        "b",
        "QQQ"
      ],
      [
        "c",
        "P"
      ],
      [
        "c",
        "h"
      ],
      [
        "c",
        "____"
      ],
      [
        "c",
        ";~~~~"
      ],
      [
        "c",
        "P~"
      ],
      [
        "c",
        "ddd"
      ],
      [
        "c",
        "O;"
      ],
      [
        "c",
        "www"
      ],
      [
        "c",
        ";O"
      ],
      [
        "c",
        "_;"
      ],
      [
        "c",
        "xx_"
      ],
      [
        "c",
        "K~"
      ],
      [
        "c",
        "xxx_"
      ],
      [
        "c",
        ";;;;;;"
      ],
      [
        "d",
        "u"
      ],
      [
        "d",
        "zz"
      ],
      [
        "d",
        "cc"
      ],
      [
        "d",
        ";;;"
      ],
      [
        "d",
        "``"
      ],
      [
        "d",
        "zzz"
      ],
      [
        "d",
        ";~"
      ],
      [
        "d",
        "uuuuu"
      ],
      [
        "d",
        "~~~z"
      ],
      [
        "d",
        ";;;d"
      ],
      [
        "e",
        "T"
      ],
      [
        "e",
        "a"
      ],
      [
        "e",
        "o"
      ],
      [
        "e",
        "yy"
      ],
      [
        "e",
        "~~~~~"
      ],
      [
        "e",
        "~~~~~~~"
      ],
      [
        "e",
        "PPP"
      ],
      [
        "e",
        ";~"
      ],
      [
        "e",
        ";~~"
      ],
      [
        "e",
        "yyyyy"
      ],
      [
        "e",
        "P~~"
      ],
      [
        "e",
        "Pz"
      ],
      [
        "e",
        "zzzzzz"
      ],
      [
        "e",
        ";PPPP"
      ],
      [
        "e",
        ";PPP"
      ],
      [
        "e",
        "```"
      ],
      [
        "f",
        "~~~~"
      ],
      [
        "f",
        "zz"
      ],
      [
        "f",
        "zzzz"
      ],
      [
        "f",
        "~~~~~~~"
      ],
      [
        "f",
        "~~;"
      ],
      [
        "f",
        ";~~~~~~"
      ],
      [
        "f",
        "zzzzzzz"
      ],
      [
        "f",
        "~~f"
      ],
      [
        "f",
        "QQ<"
      ],
      [
        "f",
        "~~~f~~~"
      ],
      [
        "f",
        "~a~~~~~"
      ],
      [
        "g",
        "ww"
      ],
      [
        "g",
        ";~"
      ],
      [
        "g",
        "www"
      ],
      [
        "g",
        "SSS"
      ],
      [
        "g",
        "S?"
      ],
      [
        "h",
        "c"
      ],
      [
        "i",
        ";~~~~~~"
      ],
      [
        "i",
        "OT"
      ],
      [
        "j",
        "Q"
      ],
      [
        "j",
        "~~"
      ],
      [
        "j",
        "~~~"
      ],
      [
        "j",
        "UUUU"
      ],
      [
        "j",
        "UUUUUUU"
      ],
      [
        "k",
        "pp"
      ],
      [
        "k",
        "qq"
      ],
      [
        "k",
        "K;"
      ],
      [
        "k",
        "K~"
      ],
      [
        "l",
        "u"
      ],
      [
        "l",
        "zz"
      ],
      [
        "l",
        "uu"
      ],
      [
        "l",
        ";;;;"
      ],
      [
        "l",
        "K~"
      ],
      [
        "l",
        "~K"
      ],
      [
        "l",
        "u;"
      ],
      [
        "o",
        "y"
      ],
      [
        "o",
        "z"
      ],
      [
        "o",
        "xx"
      ],
      [
        "o",
        ";;"
      ],
      [
        "o",
        "tt"
      ],
      [
        "o",
        "~~~~~"
      ],
      [
        "o",
        "OO"
      ],
      [
        "o",
        "pp"
      ],
      [
        "o",
        "KK"
      ],
      [
        "o",
        ";~~~~~~"
      ],
      [
        "o",
        "_K"
      ],
      [
        "o",
        "K;"
      ],
      [
        "o",
        "e`"
      ],
      [
        "o",
        "_o"
      ],
      [
        "o",
        "__o"
      ],
      [
        "o",
        "yyyo"
      ],
      [
        "p",
        "`"
      ],
      [
        "p",
        "uu"
      ],
      [
        "p",
        "qq"
      ],
      [
        "p",
        "____"
      ],
      [
        "p",
        "[["
      ],
      [
        "p",
        "oooo"
      ],
      [
        "p",
        "\\\\"
      ],
      [
        "p",
        "[[["
      ],
      [
        "p",
        "`p"
      ],
      [
        "p",
        ";zz"
      ],
      [
        "p",
        "P~~~~~~"
      ],
      [
        "p",
        "kK"
      ],
      [
        "p",
        "L~~~~~~"
      ],
      [
        "q",
        "~~~~~~~"
      ],
      [
        "q",
[...]
